_PAD
_START
_UNK
_EOS
R_price
R_post_code
R_name
R_address
R_location
R_cuisine
R_phone
</s>
in
for
that
is
on
##
The
with
said
was
the
at
not
as
it
be
from
by
are
I
have
he
will
has
####
his
an
this
or
their
who
they
but
$
had
year
were
we
more
###
up
been
you
its
one
about
would
which
out
can
It
all
also
two
after
first
He
do
time
than
when
We
over
last
new
other
her
people
into
In
our
there
A
she
could
just
years
some
U.S.
three
million
them
what
But
so
no
like
if
only
percent
get
did
him
game
back
because
now
#.#
before
company
any
team
against
off
This
most
made
through
make
second
state
well
day
season
says
week
where
while
down
being
government
your
#-#
home
going
my
good
They
're
should
many
way
those
four
during
such
may
very
how
since
work
take
including
high
then
%
next
#,###
By
much
still
go
think
old
even
#.##
world
see
say
business
five
told
under
us
1
these
If
right
And
me
between
play
help
##,###
market
That
know
end
AP
long
information
points
does
both
There
part
around
police
want
've
based
For
got
third
school
left
another
country
need
2
best
win
quarter
use
today
##.#
same
public
run
Friday
set
month
top
billion
Tuesday
come
Monday
She
city
place
night
six
each
Thursday
###,###
Wednesday
here
You
group
really
found
As
used
3
lot
'm
money
put
games
support
program
half
report
family
months
number
officials
am
former
own
man
Saturday
too
better
days
came
lead
life
American
##-##
show
past
took
added
expected
called
great
State
services
children
hit
area
system
every
pm
big
service
few
per
members
Sunday
early
point
start
companies
little
&
case
ago
local
according
never
5
without
sales
until
went
players
##th
New_York
won
financial
news
4
When
share
several
free
away
##.##
already
On
industry
'll
call
With
students
line
available
County
making
held
final
#:##
power
plan
might
least
look
forward
give
At
again
later
full
must
things
major
community
announced
open
record
reported
court
working
able
something
president
meeting
keep
March
future
far
deal
City
May
development
University
find
times
After
office
led
among
June
increase
China
John
whether
cost
security
job
less
head
seven
growth
lost
pay
looking
provide
6
To
plans
products
car
recent
hard
always
include
women
across
tax
water
April
continue
important
different
close
7
One
late
decision
current
law
within
along
played
move
United_States
enough
become
side
national
Inc.
results
level
loss
economic
coach
near
getting
price
Department
event
fourth
change
All
small
board
National
So
goal
taken
field
prices
weeks
men
asked
eight
data
shot
New
started
July
director
President
party
federal
done
political
minutes
taking
Company
technology
project
center
leading
issue
though
having
period
likely
scored
8
strong
series
military
seen
trying
What
coming
process
building
behind
performance
management
Iraq
saying
earlier
believe
oil
given
Police
customers
due
following
term
others
statement
international
economy
health
thing
Obama
return
killed
Washington
further
However
doing
face
low
higher
site
once
yet
hours
America
control
received
rate
career
Bush
teams
known
offer
race
ever
experience
playing
name
possible
countries
Mr.
average
together
using
9
cut
While
total
round
young
nearly
shares
member
campaign
media
needs
why
house
issues
costs
fire
##-#
victory
player
began
sure
story
per_cent
North
His
staff
order
war
large
interest
stock
food
research
key
India
South
morning
conference
senior
global
Center
death
person
thought
gave
feel
energy
history
recently
largest
No.
general
official
released
wanted
meet
short
outside
running
live
ball
online
real
position
fact
fell
nine
December
front
action
defense
problem
problems
Mr
nation
needed
special
January
almost
chance
'd
result
West
September
reports
leader
investment
yesterday
Some
leaders
ahead
production
comes
No
runs
match
role
kind
try
ended
risk
areas
election
workers
visit
bring
road
music
study
makes
often
release
woman
vote
care
town
clear
comment
budget
potential
single
markets
policy
capital
saw
access
weekend
operations
whose
net
House
hand
increased
charges
winning
trade
These
income
value
involved
Bank
November
bill
compared
anything
manager
Texas
property
stop
annual
private
contract
died
Now
hope
product
fans
lower
demand
News
David
club
comments
film
yards
quality
currently
events
addition
couple
schools
attack
region
latest
opportunity
worked
course
bad
fall
Group
October
jobs
list
let
however
chief
summer
programs
According
revenue
Our
rose
previous
TV
football
biggest
employees
changes
residents
means
agreement
includes
post
Canada
probably
related
training
allowed
class
bit
video
Michael
An
sent
education
states
straight
love
beat
hold
turn
finished
network
Smith
buy
foreign
especially
groups
wants
title
included
turned
bank
Florida
efforts
personal
businesses
August
California
situation
district
allow
helped
body
nothing
soon
safety
officer
cents
Europe
St.
additional
spokesman
February
wife
showed
leave
investors
parents
medical
spending
non
London
Council
matter
spent
child
World
effort
opening
either
range
question
European
goals
administration
friends
himself
shows
difficult
kids
paid
create
cash
age
league
form
impact
drive
someone
became
stay
fight
significant
firm
Senate
hospital
charged
operating
main
book
success
son
trading
###-####
focus
room
continued
Congress
everything
Park
agency
brought
talk
break
air
software
decided
Do
ready
arrested
track
provides
mother
base
trial
phone
My
build
conditions
rest
Johnson
terms
expect
England
Israel
despite
closed
starting
provided
pressure
lives
step
remain
similar
charge
date
whole
land
growing
James
Internet
projects
British
cases
ground
legal
International
agreed
tell
test
everyone
pretty
authorities
Two
above
moved
profit
throughout
inside
ability
overall
pass
officers
rather
Australia
actually
county
amount
scheduled
themselves
organization
giving
credit
father
drug
investigation
families
Republican
funds
patients
takes
systems
Japan
complete
sold
practice
calls
•
UK
force
student
idea
reached
reason
levels
space
competition
forces
sector
Last
tried
common
homes
stage
department
named
earnings
offers
star
certain
double
longer
followed
cause
Association
signed
committee
hour
college
Pakistan
users
Iran
sign
living
failed
reach
quickly
receive
debt
sale
Board
Americans
Road
Brown
insurance
##:##
anyone
tournament
More
gas
talks
serious
required
sell
construction
evidence
remains
black
below
improve
crisis
address
questions
easy
begin
view
School
heard
executive
raised
Paul
store
gets
filed
huge
moving
seems
met
####s
thousands
CEO
solutions
score
content
treatment
offered
built
hits
present
Chicago
attacks
although
social
afternoon
vehicle
read
example
rise
....
minute
banks
council
troops
rates
tough
Chinese
Even
works
fifth
knew
felt
Street
website
fund
issued
immediately
opened
goes
proposed
happy
guys
response
numbers
benefits
happened
###.#
light
positive
chairman
claims
People
details
Williams
East
accused
equipment
dropped
dollars
various
worth
judge
considered
commercial
activities
funding
dollar
plant
mobile
television
rules
rights
review
quite
regular
Dr.
served
kept
marketing
created
heart
wrote
prison
instead
concerns
offering
returned
benefit
designed
approved
foot
search
miles
planned
Health
Government
driving
Indian
entire
First
providing
host
ask
design
hearing
save
looked
Central
travel
_
successful
beginning
movie
adding
forced
toward
ensure
passed
unit
happen
mean
Associated_Press
Many
shooting
gone
winner
hopes
understand
planning
trip
raise
owner
popular
completed
ways
attention
feet
assets
traffic
Mike
Since
environment
Both
interview
consumers
Democrats
Jones
Not
hands
contact
cars
Although
dead
features
challenge
Canadian
particularly
basis
violence
stand
consumer
sense
attorney
driver
highest
£
posted
finish
limited
source
Hall
serve
Sept.
spot
Then
advantage
scoring
words
applications
Russia
reduce
How
white
appeared
itself
fuel
During
Afghanistan
simply
fiscal
Jackson
plays
account
follow
statements
organizations
pick
continues
session
nuclear
French
seconds
daughter
co
sports
Most
caused
injury
United
College
effect
selling
middle
cuts
drop
facility
true
target
consider
watch
noted
Other
resources
opportunities
strategy
learn
re
Mexico
message
injured
parties
seeking
missed
wrong
letter
From
looks
individual
approach
damage
else
speed
France
mind
Los_Angeles
bid
subject
ran
send
Mark
existing
fun
innings
press
voters
championship
leaving
earned
effective
poor
friend
customer
solution
corporate
independent
leadership
human
Democratic
shots
believes
computer
s
items
confidence
add
health_care
award
parts
cover
missing
fast
Iraqi
incident
husband
responsible
looking_statements
losses
estimated
approximately
guy
purchase
Australian
helping
finally
spend
scene
opposition
develop
Ohio
certainly
extra
UN
talking
spring
emergency
station
check
Chris
soldiers
vehicles
launch
Business
critical
professional
described
choice
moment
size
changed
holding
door
declined
R
launched
condition
lose
joined
gives
developed
Also
protect
girls
District
operation
necessary
taxes
sites
Day
beyond
African
daily
yard
calling
Those
options
stocks
newspaper
peace
proposal
Jan.
previously
Microsoft
owned
regional
Thomas
hear
housing
owners
exchange
majority
starts
victims
Times
model
struck
tour
basketball
###-###-####
published
twice
candidates
Commission
population
evening
lack
north
fighting
reporters
concerned
south
fine
weather
figures
floor
relationship
activity
remaining
believed
Scott
confirmed
anti
placed
caught
crime
crowd
appear
version
Western
Boston
girl
join
discuss
church
original
Michigan
aid
expectations
White_House
Bill
clients
located
Germany
Israeli
gold
killing
specific
Robert
act
High_School
partner
losing
claim
records
Office
offense
Dec.
Just
alone
Corp.
facilities
Another
division
Oct.
Nov.
retail
worst
legislation
page
Lee
measures
brand
expects
art
Services
standards
application
central
sixth
safe
style
elections
*
primary
greater
progress
managed
supply
gain
prior
Committee
wins
recovery
e_mail
upon
plus
type
paper
attempt
High
focused
claimed
survey
injuries
street
stores
block
analysts
Big
allows
hundreds
avoid
Conference
governor
figure
band
option
lines
sources
domestic
NFL
knows
seem
Open
Republicans
Britain
feature
walk
broke
factors
battle
developing
threat
worldwide
Feb.
written
Christmas
committed
green
agencies
improved
traditional
###.##
fair
border
About
Reuters
concern
mark
allowing
capacity
putting
appears
stories
grow
unique
favorite
nice
Today
vice_president
measure
debate
direct
stopped
index
drugs
tied
rising
risks
League
Despite
mid
arrived
communities
Meanwhile
increasing
presented
Her
boy
Court
standard
prevent
mission
deep
Chief
word
identified
pulled
inning
difference
pair
suffered
perfect
advanced
prepared
fully
blood
signs
showing
English
####-##
interested
material
article
experts
bottom
answer
D
George
usually
wait
spoke
Davis
laws
request
units
loan
directly
union
particular
baseball
loans
pre
born
affected
waiting
simple
Martin
picked
Arizona
faces
Russian
names
EU
generation
responsibility
combined
audience
hurt
seemed
red
revenues
candidate
Under
ranked
cities
places
ruling
Green
speak
strike
documents
Year
sometimes
King
seasons
via
carry
boys
facing
learned
hotel
produced
Google
seeing
seat
produce
millions
box
decisions
coverage
voice
rule
respect
World_Cup
cancer
shown
fired
decades
reasons
tonight
Aug.
commitment
alleged
competitive
rebounds
Miller
individuals
thinking
established
books
approval
deliver
remained
guard
Service
God
infrastructure
appeal
digital
Web
ordered
citizens
Research
speech
push
highly
Army
decline
holiday
self
Three
accident
radio
require
murder
wide
policies
park
Their
champion
platform
pleased
heavy
eventually
crash
minister
hot
serving
asking
Detroit
keeping
provider
partners
remember
seek
manufacturing
teachers
towards
buying
warned
Steve
initial
pounds
brother
panel
becoming
entered
sides
victim
setting
Co.
environmental
bus
Is
Asia
note
IT
carried
consecutive
older
criminal
Richard
bought
Georgia
Institute
announcement
Union
Rs
Division
decade
clean
stated
penalty
boost
attend
separate
enjoy
Web_site
table
analysis
Japanese
German
skills
jail
Valley
protection
analyst
mostly
paying
draw
Director
Taylor
perhaps
reading
cross
commission
drivers
offices
presence
meetings
votes
strength
Of
delivery
location
positions
regarding
hoping
Ryan
offensive
spread
White
whom
deficit
powerful
Club
continuing
natural
revealed
feeling
Jim
grew
watching
suggested
slow
challenges
Writer
larger
quick
definitely
flight
university
junior
inflation
ones
Apple
honor
active
voted
Community
solid
Clinton
Act
determine
reduced
fees
multiple
decide
advertising
language
expressed
steps
easily
bringing
physical
throw
forecast
schedule
denied
finding
ban
Game
agree
section
admitted
actions
normal
devices
Because
squad
creating
walked
chief_executive
streets
clearly
complex
lawyer
elected
increases
Energy
estimates
excited
helps
relief
determined
maybe
suspect
Hill
sound
piece
campus
southern
degree
smaller
status
headed
#-##
healthy
massive
testing
distribution
Why
completely
onto
hitting
closing
lawmakers
fresh
winter
Tom
contest
outstanding
exactly
percentage
Joe
contributed
movement
storm
seventh
fear
weight
Minnesota
McCain
C
secure
conducted
acquisition
Over
maintain
rally
knowledge
recorded
assistant
doctors
proud
advice
Secretary
finance
sex
Peter
WASHINGTON
refused
Miami
agent
draft
pitch
Justice
supporters
General
user
presidential
tie
Africa
New_Zealand
sort
Houston
disease
tomorrow
core
willing
patient
Hospital
considering
firms
Still
technical
trouble
Its
picture
extremely
confident
count
visitors
extended
Once
reality
expand
Christian
expansion
lived
Lake
Palestinian
downtown
doubt
nature
listed
leads
opinion
River
row
fellow
corner
author
Development
screen
shareholders
faced
Illinois
plants
arrest
society
character
labor
gains
science
teacher
web
restaurant
learning
recession
raising
failure
airport
intelligence
selected
zone
buildings
industrial
contracts
advance
fit
assists
tickets
youth
variety
matches
defensive
package
requirements
connection
writing
ongoing
Iowa
explained
accept
lawsuit
Wilson
profile
ending
expenses
employee
resident
myself
stuff
Supreme_Court
Toronto
standing
Corporation
covered
Young
politics
aware
Minister
device
display
culture
train
driven
closer
real_estate
illegal
meant
technologies
card
dog
in.
enter
communications
weapons
gained
supported
eye
NEW_YORK
associated
chances
Instead
centers
dangerous
views
worse
studies
discussion
Colorado
Atlanta
San_Francisco
attended
pace
Virginia
album
entertainment
camp
Before
trust
strategic
falling
favor
retired
removed
army
balance
plane
quarterback
Baghdad
banking
baby
truck
Ford
sought
write
partnership
nearby
image
stars
volume
effects
Cup
tests
South_Africa
Chairman
interests
occurred
Philadelphia
bond
introduced
sport
spokeswoman
behavior
defeat
treated
direction
Only
bigger
crew
allegedly
uses
Avenue
mortgage
miss
Among
catch
appearance
welcome
experienced
ideas
negotiations
Foundation
Asian
authority
slightly
urged
hole
reform
achieve
Education
Brian
assistance
delivered
compete
link
choose
possibility
ruled
interesting
seats
threw
drove
Anderson
B
immediate
investments
payments
northern
relations
license
discovered
prove
registered
perform
governments
debut
researchers
accounts
Well
limit
eyes
deaths
Here
neighborhood
handed
veteran
alternative
basic
manage
tools
negative
Each
secretary
kill
receiving
Jr.
collection
coaches
returns
Black
surgery
gun
replace
fan
institutions
personnel
golf
happens
surprise
changing
kick
ceremony
west
resolution
broken
plenty
nor
easier
passing
pain
Kevin
bar
Bob
Federal
everybody
talent
represent
Former
unless
pull
cast
deals
grade
song
filled
wish
begins
affect
nations
fee
Post
largely
New_Jersey
apparently
email
NBA
Management
portfolio
recognized
speaking
shut
sit
profits
reporting
holds
represents
dozen
practices
declared
rich
thanks
#####
supplies
convicted
native
Dallas
improvement
amid
classes
participate
accepted
jump
village
aircraft
poll
abuse
carrying
east
pro
client
equity
sitting
generally
notes
unable
ice
houses
stake
Carolina
rain
savings
warning
brings
USA
discussed
Fed
adults
GM
file
Spain
responded
parking
Let
returning
Sun
orders
telling
encourage
Like
identify
William
pushed
joint
conduct
suspended
wind
Tigers
edge
roads
female
sentence
Wall_Street
Oklahoma
backed
promote
eighth
influence
organized
Seattle
cold
bills
payment
properties
scale
Your
rival
religious
retirement
possibly
turning
civil
moves
currency
Team
aimed
Italy
breaking
alcohol
awards
talked
grant
wall
allegations
requires
Indiana
mayor
races
struggling
whatever
readers
appointed
Matt
voting
Will
Home
significantly
heat
Information
structure
transfer
supporting
trend
increasingly
networks
otherwise
conflict
cutting
modern
wearing
executives
entry
Beijing
playoff
wireless
T
Fire
Every
M
Centre
meaning
leg
intended
appropriate
excellent
North_Carolina
involving
stood
heads
rescue
walking
locations
materials
sending
bodies
snow
fish
feels
Mayor
deputy
mile
Olympic
passengers
except
Fox
Senior
storage
shop
Lewis
Middle_East
supposed
numerous
songs
awarded
traded
sister
possession
realize
understanding
ten
justice
rating
expensive
jumped
improving
fraud
animals
Howard
Technology
dedicated
tight
lawyers
sets
linked
providers
investigators
stands
terrorism
arm
freedom
notice
sentenced
coalition
touch
Women
exercise
Global
settlement
disaster
assist
electronic
playoffs
combination
apply
shared
doctor
US
comprehensive
Andrew
earn
fill
rock
Fund
giant
please
suit
Life
owns
electricity
exciting
winners
beating
protest
Though
rejected
ticket
Church
Charles
farmers
ride
maker
heading
Yet
regulations
Kelly
models
ends
Sports
innovative
Earlier
upcoming
writer
performed
films
arms
married
prosecutors
agents
##s
handle
Market
duty
captain
securities
employment
surprised
Securities
worried
ninth
Muslim
Sen.
pointed
magazine
threatened
headquarters
Italian
participants
visiting
Oregon
press_release
fly
Wisconsin
Jordan
primarily
respectively
Spanish
New_Orleans
transportation
younger
Media
jury
respond
rural
Ministry
acting
Party
factor
update
island
Afghan
flat
remove
photo
Mary
selection
scheme
Facebook
impressive
becomes
P
indicated
Yankees
Jeff
Financial
photos
professionals
fewer
shopping
split
San_Diego
Public
initiative
Moore
stretch
monthly
stronger
bench
racing
Tennessee
none
values
farm
producer
reduction
famous
Pennsylvania
Brazil
broadcast
promised
operate
Allen
acquired
goods
Paris
relatively
passes
purpose
movies
directors
Southern
SEC
clubs
conservative
Delhi
Call
comfortable
replaced
Clark
matters
hospitals
Top
Hollywood
Democrat
opponents
targets
suffering
festival
Network
compensation
guilty
efficient
managers
truly
faith
scores
busy
extend
faster
yourself
weak
rare
initially
importance
waste
suspected
margin
watched
meters
Ireland
franchise
fashion
pound
professor
Alabama
multi
grown
Officials
estimate
document
register
cable
obviously
familiar
scientists
Cleveland
artists
invited
#,###,###
vs.
crimes
Gulf
Hamas
prepare
volunteers
cool
financing
images
fixed
hired
enable
camera
Food
memory
historic
dinner
proved
Arab
sees
telephone
vision
reportedly
soccer
.###
Irish
ship
path
actor
circumstances
severe
expert
traveling
engineering
Manchester
Four
dance
Taliban
Jason
Turkey
Several
overseas
Thompson
bridge
lowest
auto
counts
attempts
reflect
color
Tim
wounded
secret
visited
greatest
leaves
types
representatives
worry
internal
Bay
adds
athletes
Harris
mix
industries
ministry
signing
Woods
targeted
tells
Please
serves
interest_rates
AP_Photo
Local
graduate
quoted
argued
association
lots
announce
shortly
featured
marriage
contained
Man
priority
terrorist
Commerce
Oil
Pittsburgh
unlikely
causing
directed
code
die
category
chosen
shift
Rangers
Gaza
maintenance
apartment
theater
effectively
Denver
mine
upset
western
nationwide
GOP
thinks
Pacific
euro
Joseph
Sales
closely
friendly
channel
brain
custody
barrel
afford
Who
Yes
dogs
residential
dream
actual
reaching
transaction
Kentucky
finals
#.###
cooperation
boat
investigating
communication
freshman
outlook
deadline
surface
parent
phase
eat
asset
truth
delay
enjoyed
shape
anticipated
representing
purchased
hoped
Judge
Rep.
portion
opposed
Security
enterprise
animal
controlled
politicians
Power
North_Korea
Dan
cards
suggest
Family
concert
uncertainties
Free
granted
beautiful
recognize
joining
####-####
flights
absolutely
Hamilton
dealing
cap
turns
Capital
ties
informed
Jack
#,###.##
window
'##
Best
pool
Hong_Kong
coaching
titles
blue
amazing
fears
demands
Missouri
cited
behalf
Edwards
bonds
shoulder
seriously
districts
aggressive
alive
Utah
bomb
suspects
dark
sea
therefore
overtime
submitted
agenda
establish
Kansas
engine
Program
mainly
NCAA
maximum
male
pushing
airline
principal
library
pieces
dispute
corruption
reserve
Children
sponsored
militants
reducing
Massachusetts
originally
Championship
sharing
mixed
complaint
J.
realized
crucial
province
ultimately
brands
capabilities
acknowledged
distance
struggle
Or
stations
discussions
judges
Maybe
extensive
Award
Giants
manufacturers
Jewish
Egypt
United_Nations
achieved
defeated
assault
worker
criticism
usual
Patrick
presentation
improvements
Of_course
Anthony
represented
Such
Shares
Any
findings
counties
stolen
K
expense
Daniel
Dr
editor
herself
Drive
complaints
buyers
A.
mentioned
stayed
efficiency
democracy
knee
connected
Islamic
Q
terror
operates
law_enforcement
prime_minister
Series
neighbors
successfully
permanent
Tony
parliament
adult
ages
Eagles
consistent
proposals
explain
formed
weekly
supports
coast
broad
iPhone
relevant
opener
detailed
Walker
human_rights
Iranian
letters
guess
internet
struggled
entering
widely
recovered
Law
happening
par
protests
II
colleagues
tool
trees
text
capable
Phoenix
monitoring
limits
eligible
#
passenger
expanded
Ms.
reputation
brief
motion
St._Louis
treat
fought
concluded
gap
unemployment
restaurants
ad
surrounding
stepped
drew
collected
Gold
#.####
retailers
preparing
wear
destroyed
threats
Chelsea
Singapore
invest
Town
concept
recommended
flying
Kerry
minimum
flow
resulted
marked
chain
combat
rookie
Stephen
noon
performances
Gary
founded
artist
reporter
celebrate
featuring
Air
Star
gathered
potentially
PC
publicly
Kennedy
disappointed
Agency
pictures
touchdowns
fallen
President_Barack_Obama
depth
auction
wonderful
criticized
attacked
essential
damaged
qualified
banned
suggests
specifically
sat
Scotland
Project
loved
dozens
representative
Authorities
typically
era
Stewart
singer
thus
creation
teaching
Sydney
NHL
acres
challenging
encouraged
Las_Vegas
Northern
seniors
quarters
momentum
Dave
producing
processing
inches
segment
versus
mining
route
expertise
Five
wing
touchdown
promise
Wright
healthcare
Are
yen
integrated
neither
Robinson
Academy
puts
Press
foundation
overnight
armed
ex
outcome
reaction
producers
follows
fields
stadium
Be
failing
aside
bed
doors
pilot
E
operators
forms
extension
mass
substantial
obtained
adopted
reserves
FBI
carries
NATO
trained
Dubai
contain
tackle
temporary
proven
regulatory
violent
danger
tree
boss
Frank
Maryland
apart
gift
musical
warm
creative
Prime_Minister
transport
developers
OK
likes
Henry
Ben
courts
wake
shoot
lineup
Report
regulation
kid
task
blog
hosted
Medical
eastern
South_Korea
drawn
Ave
regime
pending
ourselves
threatening
mistake
Through
laid
journalists
cultural
blame
copy
machine
mail
®
proper
listen
links
Officer
Columbia
relationships
natural_gas
premium
0
assessment
generated
chose
Campbell
Second
captured
Can
summit
climate
sophomore
Connecticut
keeps
teammates
dismissed
Time
generate
hockey
Vice_President
vital
E.
territory
Eastern
elsewhere
hair
resulting
Mississippi
veterans
recognition
BP
accounting
polls
holes
initiatives
amounts
Treasury
finishing
See
length
birth
rivals
gay
roughly
performing
futures
Royal
exports
tested
seed
blow
historical
starter
+
guests
river
minor
pop
predicted
roll
acts
recalled
anybody
strategies
sharp
horse
Games
prize
valuable
witness
Regional
drinking
contribute
Arkansas
computers
Louisiana
guidelines
funded
delayed
handling
Austin
Defense
exclusive
repeatedly
academic
Lebanon
resource
output
Mitchell
contributions
background
runner
prospects
filing
questioned
applied
Test
Manager
ratings
thank
Eric
Right
characters
wine
saving
lift
civilians
Bloomberg
identity
ownership
obvious
throwing
settle
tracks
smart
Stadium
developments
lunch
Twitter
Liverpool
bail
forget
transition
equal
founder
involvement
gotten
protesters
Class
ABC
euros
S.
homer
Music
opponent
Little
competing
submit
projected
cell
monitor
century
sessions
Parliament
meets
begun
Navy
metal
critics
forum
honored
ballot
affairs
desire
RBI
click
expanding
topic
Following
recommendations
sectors
Red
causes
Ontario
ease
marks
consumption
appointment
officially
argument
newly
Palestinians
wonder
`
spirit
Atlantic
ring
employers
strongly
registration
gasoline
Coach
Total
salary
blocks
classic
Week
educational
feed
managing
cells
stick
exploration
installed
Gordon
blamed
insisted
conversation
trends
elements
guidance
Baltimore
charity
emerged
blocked
replacement
covering
powers
tourism
enhance
operator
Roberts
saved
plate
engaged
expecting
ranks
donations
mention
immigration
pension
emerging
moments
testimony
witnesses
impossible
LLC
tries
rounds
exposure
Trust
celebration
instance
controversial
Alex
harder
stress
settled
remarks
articles
false
Get
dominated
Labor
Pakistani
Island
Murray
dramatic
collapse
attempted
drama
boards
museum
attract
remote
experiences
Show
chair
Toyota
anywhere
messages
developer
Vancouver
ads
opens
Journal
confirm
requested
error
Museum
print
pitcher
contains
Nelson
decrease
attending
System
integration
thrown
unusual
stability
Earth
makers
merger
steel
yield
knocked
square
glass
Lions
Taiwan
inspired
flag
Mumbai
volunteer
fishing
activists
Tokyo
firefighters
alongside
aim
guarantee
clinical
Good
claiming
staying
Duke
tremendous
contribution
terrorists
wave
electric
restrictions
recall
implementation
knowing
skin
utility
CBS
processes
Highway
halftime
fix
quarterly
emotional
maintained
counter
annually
repair
Craig
Lady
S_&
obtain
European_Union
Indians
abroad
Mexican
stable
PM
regions
tradition
totally
opinions
hosts
citing
Long
pitched
Larry
necessarily
beaten
Adam
reasonable
drink
poverty
properly
somebody
canceled
sounds
sick
saves
Deputy
Society
Nick
Carter
lucky
folks
Nigeria
Nevada
defend
Bell
lights
minority
posting
drilling
differences
Love
regularly
roster
bankruptcy
S
participation
Super_Bowl
interim
controls
competitors
stuck
delivering
viewers
Catholic
W.
agreements
subscribers
Sometimes
smoke
War
compliance
manner
trucks
Back
Wales
yes
Junior
M.
mistakes
Gov.
Baker
formal
investor
Vietnam
Oakland
speculation
Sam
qualifying
attorneys
Next
finds
quiet
cleared
Everyone
bag
explosion
taxpayers
guide
occur
encouraging
Net
highway
sleep
recover
interviews
Rock
Lincoln
satellite
entirely
dry
papers
Where
soldier
covers
exhibition
Science
blast
capture
FDA
function
availability
Commissioner
lending
peak
wild
facts
procedures
lap
awareness
Up
pursue
edition
studio
correct
inch
Great
Systems
switch
participating
tend
champions
Kim
Blue
lay
Trade
purposes
departments
THE
ranking
addressed
Olympics
perspective
Marshall
Ltd.
Moscow
components
Having
seized
clothing
Kansas_City
drawing
resistance
choices
recording
demanding
urban
pages
Windows
doubled
suspension
manufacturer
innovation
climbed
Mobile
Russell
Adams
Industry
Cardinals
port
Panthers
runners
G
brothers
visits
implement
All_Star
relatives
al_Qaida
atmosphere
defined
absence
steady
branch
pitching
NBC
normally
gathering
signal
administrative
empty
obligation
Legislature
commander
prompted
falls
taught
promotion
Muslims
incidents
operational
Water
pricing
silver
subsidiary
qualify
Art
escape
wealth
singles
roof
extent
privacy
Students
spots
tennis
grants
transactions
Speaking
scientific
export
Ray
referring
preliminary
rooms
sanctions
degrees
eating
legislative
Morgan
resume
involve
resolve
operated
sexual
prospect
typical
Bears
membership
Murphy
hiring
Rice
consideration
AT_&
civilian
fairly
climate_change
investigate
violations
pipeline
seeks
crore
hire
Investors
Online
Alaska
###th
theme
stressed
Exchange_Commission
resort
Tour
walks
roles
rebound
reference
Analysts
specialist
timing
Bureau
imagine
rapidly
angry
riding
violation
attitude
guest
select
tech
Cameron
barrels
sensitive
hosting
demanded
Graham
marijuana
intent
BBC
@
strengthen
channels
ministers
newspapers
referred
Building
testified
column
Ross
Terry
arrive
Unfortunately
rushed
kilometers
frame
provision
authorized
fail
completion
traveled
Daily
heavily
acquire
striking
virus
DVD
Index
secured
breaks
Greg
attractive
Portland
indeed
approve
survived
intense
somewhat
aims
crews
protected
checks
distributed
talented
kicked
permission
Tech
judgment
IBM
beer
clothes
Administration
Maine
coal
Intel
packed
promoting
flood
approached
Washington_DC
towns
disappointing
Old
collaboration
hopefully
streak
Based
balls
pleaded_guilty
sustained
noticed
permit
beach
Grant
collect
journey
victories
Greece
statistics
fantastic
rail
Take
hundred
pack
broadband
Air_Force
cycle
delays
comedy
thoughts
hardware
solar
Finance
bound
Price
proceeds
Cincinnati
suicide
prisoners
discovery
dad
searching
longtime
Pentagon
premier
command
enables
###-###
ranging
nobody
actress
aspects
fled
Melbourne
Orange
videos
Federal_Reserve
cricket
Asked
ratio
birthday
Radio
restructuring
episode
Field
Parker
cameras
persons
championships
answers
promises
unknown
argue
differ_materially
Rose
NYSE
Evans
surge
focusing
doubles
Bruce
donated
ideal
equivalent
reliable
sustainable
factory
Without
scenes
survive
contacted
mph
residence
trips
hotels
bat
unclear
gang
grounds
slipped
carrier
bases
prosecutor
categories
liked
accurate
advised
slowly
Read
abortion
mom
Mets
tons
Perhaps
requests
forcing
frequently
overcome
inquiry
situations
apparent
map
universities
bear
Staff
Whether
stroke
medicine
drives
reforms
vendors
defending
teach
medium
prime
Andy
Governor
basically
exposed
Hotel
F
Ms
dialogue
Indonesia
stimulus
Alliance
probe
Perry
Ron
methods
shall
landed
stages
credit_card
luxury
dates
vulnerable
preparation
regulators
indicate
appearances
theft
appreciate
complained
Memorial
Oh
chemical
relative
Transportation
consequences
imposed
rolled
alert
virtually
provincial
Sony
forecasts
Dean
strikes
athletic
neck
tourists
cell_phone
sad
pct
Arsenal
prominent
allies
Josh
writes
alliance
method
meanwhile
Simon
Morris
Beach
crude
suffer
files
quit
Syria
deployed
Phillips
shock
Communications
picking
clock
posts
regard
convention
penalties
backing
rapid
independence
novel
central_bank
Korean
scandal
campaigns
Assembly
widespread
species
audio
explains
investing
NASA
Tickets
welcomed
detail
unions
moderate
religion
earthquake
wedding
grabbed
Don
Thailand
Six
restore
plot
Milwaukee
lifted
coffee
Keep
sun
honest
passion
periods
publication
Saints
swing
Wood
Calif.
toll
master
useful
eliminate
answered
congressional
neighbor
dropping
weapon
promising
maintaining
seeded
arrival
soft
format
honors
trillion
teen
smoking
Collins
impressed
consultant
tiny
temperatures
adviser
windows
Cook
shelter
deadly
label
noting
foul
Form
commissioner
Sri_Lanka
Rogers
sheriff
Stanford
succeed
nomination
upgrade
Montreal
rely
string
trail
aged
traders
triple
personally
implemented
preferred
winds
lies
Victoria
Marketing
exist
Besides
Labour
Dutch
Attorney_General
proof
tank
etc.
zero
secondary
Special
consistently
delighted
Rodriguez
defender
suddenly
Wayne
Go
garden
e
routine
anonymity
Barack_Obama
postseason
introduce
venue
teens
free_throws
affordable
Others
Franklin
meat
resigned
Way
attendance
suppliers
concrete
#.##_ERA
repeat
anyway
solve
convinced
McDonald
St
Charlotte
legs
uncertainty
Given
cheap
programming
Theatre
neighboring
Solutions
helicopter
demonstrated
bright
comeback
offset
forth
harm
##st
protecting
detained
NY
meter
earning
glad
duties
#:##.##
rated
upper
dividend
senator
Jerry
Haiti
World_Series
pulling
organizers
exit
Ward
shoes
entitled
viewed
clash
Madison
courses
Area
Manhattan
bike
Insurance
afraid
billions
€
hardly
download
Stock_Exchange
petition
bonus
lying
elderly
reflects
hate
errors
kinds
Look
Arts
Chamber
Medicare
Lane
Senator
belief
Hawaii
Cooper
assigned
crazy
arts
Turner
retain
longest
crashed
TM
guards
Members
assume
mouth
sufficient
barely
Libya
sharply
Yahoo
connect
offerings
funeral
express
kitchen
Wal_Mart
purchases
Youth
averaged
gaming
disclosed
kills
investigations
constitution
flexibility
Red_Sox
Iraqis
Boeing
burning
extreme
updated
Festival
unprecedented
Reid
Al
dealers
acquisitions
backup
Lakers
faculty
prosecution
tired
Hughes
ups
Blair
Zimbabwe
optimistic
pledged
temperature
Lawrence
NASCAR
Bulldogs
funny
Alan
handful
targeting
broader
rape
intention
super
L.
regardless
nights
abandoned
Matthew
birds
sponsor
Cuba
airlines
Buffalo
tips
conviction
celebrated
Revenue
taste
relating
citizen
locked
Coast
Sarah
paint
load
essentially
symptoms
horses
#-#-#
Steven
reviewed
guns
Douglas
handled
Jets
emissions
hurricane
walls
counsel
consensus
DNA
reveal
everywhere
occasion
carefully
understood
inventory
engage
lease
incredible
constant
sons
compromise
Authority
Christopher
Mountain
shops
Turkish
worries
raises
Out
Cabinet
Obviously
opposite
fitness
database
Brandon
diverse
stops
battery
parks
Medical_Center
rush
Constitution
burden
controversy
departure
luck
rebels
repeated
involves
firing
troubled
Korea
benchmark
backs
anymore
Tyler
institution
keen
fighters
rallied
contrast
Village
invested
Video
assembly
Ottawa
LA
intends
Swiss
Bryant
plastic
New_Hampshire
converted
depending
Later
ordinary
West_Virginia
credits
flooding
Indianapolis
actors
productivity
democratic
Sean
transferred
tip
interactive
County_Sheriff
casino
basket
chip
bet
writers
execution
requirement
automatically
Jan
Fame
plea
Richmond
i
Justin
machines
please_visit
modest
Malaysia
procedure
Mrs.
calm
updates
unveiled
Golden
Warren
Jefferson
swept
loose
latter
nervous
agriculture
valued
pregnant
Awards
conclusion
homeowners
household
prefer
enforcement
Lord
Prosecutors
requiring
definition
demonstrate
parade
Anyone
'##s
hero
Sgt
economists
rushing
explore
decreased
patrol
surprising
diabetes
component
anger
incentives
Channel
Live
Nebraska
Premier_League
Republic
carriers
Sullivan
commented
teammate
legacy
Argentina
fleet
fat
presents
vacation
introduction
discount
Ken
provisions
GDP
praised
Note
lane
Saudi_Arabia
sells
enhanced
insurgents
copies
pride
odds
employed
challenged
singing
equally
collapsed
thousand
Football
landing
techniques
III
BC
Butler
item
objective
Stars
robbery
planes
supplier
comparison
Rick
Until
Investment
Township
gifts
engineers
San_Jose
burned
Attorney
arrests
Patriots
feedback
bags
revised
versions
agricultural
Plan
extraordinary
sight
Neither
Baseball
recruiting
attacking
Chrysler
describe
retailer
reflected
conspiracy
Point
Islam
Richardson
Library
calendar
Finally
creates
Broadway
minds
Wildcats
Have
midnight
Elizabeth
functions
Scottish
virtual
delivers
resignation
Tehran
badly
indication
commit
Orlando
pitches
gallon
ultimate
beauty
spoken
invasion
fires
concerning
waters
authors
tea
turnovers
advisory
Memphis
buried
rent
HIV
Rob
Jonathan
probation
excess
girlfriend
striker
colleges
Did
priced
fastest
robust
tracking
participated
lie
dating
Super
Shanghai
bowl
highlight
guaranteed
R.
chapter
Poor
tape
Express
server
deployment
shareholder
Marine
enormous
homeless
illness
hall
exhibit
soil
##nd
noise
outs
deserve
Disney
Currently
CIA
rolling
rarely
adoption
peaceful
C.
containing
felony
Warriors
elite
cabinet
sponsors
World_War_II
economies
hike
arena
solo
platforms
liability
outdoor
somewhere
Ed
displayed
Alexander
divided
context
Keith
clinic
lifestyle
flew
Part
de
screening
dramatically
Pirates
Watson
classroom
contractors
fundamental
partly
ensuring
Oscar
Entertainment
tackles
Gates
slide
suggesting
ill
imports
highlights
Airport
Garcia
assured
bunch
constantly
holidays
touched
attempting
fate
listening
»
legislators
decent
Pat
risen
hanging
certified
nominated
Executive
lists
averaging
lessons
closure
lifetime
CD
Sudan
Data
Head
Fisher
wider
shocked
Chief_Executive_Officer
RBIs
destination
tens
recommendation
buses
phones
Caribbean
acre
Delta
observed
trials
subsequent
scenario
shipping
liberal
lab
pet
Todd
milk
rumors
Kenya
IP
municipal
Phil
starters
Prior
2nd
bombing
popularity
thirds
bailout
menu
asks
Aaron
tragedy
packages
interviewed
Companies
licenses
Check
Additionally
memories
colors
consulting
constitutional
welfare
nonprofit
designs
verdict
defendants
ankle
sparked
Limited
Investigators
Contact
##th_century
remarkable
accompanied
briefly
AFP
Montana
letting
Hudson
receiver
Overall
wore
Kings
dynamic
Third
1st
Directors
attached
tone
reverse
Brazilian
Columbus
survival
establishment
meal
joint_venture
Country
reception
promoted
memorial
warrant
complicated
inmates
Does
rough
earth
merely
eliminated
smile
Miss
checked
J
adjusted
sweep
leverage
Sacramento
Annual
external
mountain
amendment
associate
Plus
preserve
attracted
defendant
sorry
recovering
subjects
Masters
N.
Peterson
diagnosed
enabling
legitimate
terrible
Philippines
studying
shed
achievement
delegation
launching
Classic
dress
DC
reward
Jennifer
circuit
Birmingham
boxes
vast
adopt
affair
formerly
Men
enjoying
predict
respective
recommend
Sweden
permits
pattern
admits
HP
Dennis
renewed
Vikings
Place
Blues
satisfied
principles
crossed
travelers
landscape
deposits
Construction
aboard
Susan
LONDON
narrow
practical
installation
D.
San_Antonio
samples
exception
halt
loaded
Delaware
Harrison
Station
Tribune
vaccine
cup
websites
Make
urging
unlike
purchasing
sudden
lined
Hunter
tonnes
Summit
wood
eager
climb
careful
mode
enemy
wanting
engineer
desperate
AIDS
Further
commissioners
Enterprise
powered
dealt
oldest
Indeed
admission
Friends
connections
therapy
Roy
topics
comfort
hang
addressing
celebrity
Unlike
theory
singled
donation
listing
depends
audit
employer
corporations
ships
Creek
winning_streak
boom
raid
Key
innocent
Agriculture
Spring
fence
Route
gather
bars
stole
Northwest
sentiment
cheaper
Poland
Ukraine
journalist
Cubs
rental
filings
Barry
preseason
deeply
flu
Egyptian
topped
van
advocates
speaks
yellow
Bridge
Photo
accuracy
determination
Nearly
Hope
Greek
takeover
loves
intend
grand
Bennett
Bradley
conducting
deposit
routes
graduated
Everything
underlying
Forum
neighborhoods
objectives
spotted
speaker
Hopefully
matched
pharmaceutical
households
Economic
™
hunting
prevention
highlighted
announcing
insists
reviews
daughters
Additional
capability
vice
weakness
Forest
Brad
Casey
flexible
spokesperson
Prince
electronics
deny
structures
presidency
adequate
CNN
Michelle
admit
Professor
LOS_ANGELES
retire
forever
humans
coordinator
telecommunications
emphasis
Co
defended
crossing
studied
wages
Queen
conversion
proceedings
sweet
rear
organic
hopeful
Cox
releases
aspect
Notre_Dame
gear
Social
superior
bands
resolved
salaries
mental
homers
Assistant
liquidity
bedroom
Powell
charter
District_Court
Seven
Thanks
entrance
lake
Phillies
statewide
Everybody
element
Red_Cross
Packers
camps
chase
Review
ambassador
Liberty
difficulties
Doug
surveillance
totaled
militant
crop
fault
vowed
thin
boats
dominant
considerable
Foreign
Netherlands
damages
Cowboys
Major
fruit
Fair
stopping
profitable
deciding
nursing
Independent
NC
tsunami
##,###.##
extending
semifinals
input
referendum
Being
anniversary
respected
violated
assess
puck
lenders
arrangements
criteria
celebrating
frustrated
marketplace
cooking
install
Sharon
affecting
3_pointer
rugby
forest
cloud
contractor
chest
Idaho
H
signature
uniform
accidents
intervention
tougher
teenager
gambling
mortgages
standings
evaluation
Wallace
planet
dressed
underground
exact
conservation
midfielder
Grand
depend
replacing
Night
headline
questioning
athlete
Saddam
wide_range
comparable
accomplished
ordinance
feared
discussing
riders
Champions_League
Ian
copper
Using
unexpected
administrators
favorable
Montgomery
painting
Port
comply
headquartered
gross
Social_Security
picks
diplomatic
lighting
tobacco
Should
feelings
pays
LSU
documentary
Tampa_Bay
addresses
senators
linebacker
Safety
cleaning
withdrawal
brilliant
custom
priorities
economist
Spurs
Again
waited
Metro
Armstrong
furniture
sub
ESPN
turnover
costly
height
volumes
Harvard
Jon
till
grab
Reed
completing
sample
equipped
delegates
favorites
shortage
Early
publisher
estate
hitter
globe
Newcastle
Residents
evaluate
Schools
sits
venture
shoppers
Gray
designated
tying
signals
lesson
Kyle
Jesus
licensed
escaped
booked
Dow
Cole
survivors
Charlie
Southwest
integrity
unchanged
trains
mainstream
managing_director
ignored
Airlines
Ellis
Officers
negotiate
Jews
receives
Kent
ethnic
Ferguson
focuses
breakfast
laps
measured
produces
skill
3rd
indicates
Angels
branches
Jay
surrounded
Region
detention
Rome
York
Venezuela
tears
examine
visible
steal
Auburn
generations
Gas
Ashley
square_foot
deemed
fatal
Hawks
Switzerland
mess
mandate
budgets
Barcelona
suite
deeper
pilots
publishing
grass
meals
enabled
footage
Citigroup
sections
Looking
transmission
everyday
literally
tires
acted
photographs
automotive
somehow
investigated
slated
dancing
electrical
bulk
designer
highs
excluding
chamber
checking
3D
corn
snapped
hidden
MP
scholarship
fundraising
Nashville
boosted
USC
moral
declining
trainer
proprietary
Much
bids
Stevens
Berlin
churches
audiences
Software
Kids
Singh
blew
Verizon
EPA
crack
withdraw
gaining
Work
tap
math
Harper
Square
wrapped
Foster
thrilled
###-##
Federation
sued
charging
Lisa
Canadians
Bangladesh
foods
arguing
placing
trades
End
childhood
scope
lawsuits
disclosure
pump
inspection
villages
spin
knock
offshore
global_warming
capped
formally
physicians
existence
responsibilities
mood
witnessed
trophy
Martinez
grades
Standard_&
oppose
airports
demonstration
Palin
safely
litigation
incentive
fake
garage
judicial
Hundreds
arguments
catches
destruction
borders
disabled
None
Nokia
Line
Barnes
workshop
stream
strange
Nasdaq
drill
##rd
Action
divisions
administrator
hunt
Representatives
sophisticated
Queensland
sugar
discrimination
Exchange
nationally
stance
obligations
passage
workforce
announces
span
restricted
hearings
punishment
Freedom
Carroll
Brooks
Dodgers
##,###,###
immigrants
margins
excitement
diseases
Nothing
Support
Chavez
lets
discipline
Jerusalem
toys
wage
Reds
accepting
balanced
nuclear_weapons
Along
accessible
actively
jet
architecture
Mrs
illegally
personality
debris
Bonds
responding
fines
replied
aging
Hispanic
fed
filling
activist
march
tenure
hometown
Bond
pocket
Simpson
Thanksgiving
conventional
segments
burn
yuan
battling
quake
currencies
exceptional
YouTube
strongest
encounter
perfectly
Me
Portugal
bottle
Results
Vermont
Mills
lady
crude_oil
slip
laugh
beef
Players
Oracle
Cash
overhaul
buyer
Ali
rank
locally
Heat
Stocks
principle
Mason
Section
framework
Edward
Inc
rebel
blaze
PRNewswire
Sea
patent
Rev.
collecting
UCLA
rid
devastating
donors
identification
editorial
Blake
compound
networking
Dell
GMT
Watch
prevented
Southern_California
uncertain
Yesterday
Camp
babies
slight
removal
Louisville
Bulls
Partners
storms
greatly
torture
trapped
roots
Farm
difficulty
slowed
cash_flow
physically
specialty
weaker
insight
Ltd
Kashmir
fined
diet
Linda
commodities
pollution
gym
Rams
######
triggered
tournaments
km
newest
Herald
Silver
accommodate
unfair
humanitarian
Clarke
achievements
offenses
Braves
intersection
repairs
Lebanese
Midwest
executed
##th_anniversary
flowers
parliamentary
Chase
assumptions
batting
breach
reductions
stunning
suspicious
Roger
B.
appealed
pointing
Use
finale
profitability
Raiders
suitable
4th
establishing
chips
responses
dying
tune
sky
remembered
prizes
Randy
discover
generating
slowdown
frustration
surely
Marines
circle
Nobody
drought
Laura
spectacular
Details
musicians
Interstate
hell
lock
dreams
impose
displays
Which
MD
South_Korean
Karen
temporarily
button
communicate
States
arriving
Duncan
trailer
licensing
Wells
wheel
Henderson
lasted
ocean
tribute
urge
MPs
meaningful
anticipate
attributed
automatic
Corporate
Northeast
prestigious
ID
treatments
finances
suggestions
parked
frequent
declines
pole
restored
shore
Digital
n
Green_Bay
enterprises
joins
transit
formation
Steelers
Comments
viewing
Ghana
negotiating
rises
productive
N
Capitol
unity
Racing
finger
infected
Housing
achieving
Garden
sporting
divorce
hide
disappeared
crowds
duo
acceptable
Tournament
donate
Notes
pursuing
rotation
wound
speakers
considers
accounted
describes
Technologies
physician
contemporary
matching
USD
chemicals
Fort
Television
jailed
commitments
notified
`_s
maintains
pleaded
diversity
teenagers
painful
drafted
explanation
Bishop
assisted
safer
Bailey
boyfriend
convince
destroy
Medicaid
Gonzalez
formula
blown
Harry
Things
BJP
Foreign_Minister
odd
baseman
holders
###m
wars
coastal
White_Sox
Quebec
breast_cancer
grandchildren
impression
showcase
manages
surged
trio
UAE
contributing
caution
provinces
description
grateful
bombs
cocaine
unbeaten
wildlife
edged
understands
usage
coached
jurors
accordance
reviewing
subscription
suspicion
rankings
philosophy
Gibson
occasions
shirt
whenever
O'Brien
Consumer
Hills
underway
implementing
killings
demonstrations
approaches
indictment
Rather
fortunate
subsidiaries
mini
dual
swimming
fueled
proceed
Wade
emerge
Euro
wet
fights
Cost
rocket
examined
respondents
Sheriff
blocking
preventing
majors
guarantees
training_camp
disappointment
counting
wise
treating
cautious
tactics
examples
kicks
Unit
Reports
V
shake
headlines
carbon
sisters
ethics
choosing
oversight
doubts
reader
Thai
Federer
Falcons
youngest
killer
Amy
bats
ounce
appearing
neutral
projections
suburban
Announces
nurses
advocate
square_feet
Banks
joy
pledge
Calgary
O
disclose
cat
praise
cargo
slowing
wishes
Money
wholesale
Latin_America
conversations
Dow_Jones
struggles
consists
Championships
Bryan
Riley
depression
elect
Land
IMF
Athens
Would
waves
Saudi
Colts
Parks
import
instruments
foster
utilities
Holland
L
surplus
ambulance
occupied
careers
offseason
exists
servers
gate
Policy
Danny
titled
trailed
inappropriate
hearts
spill
amended
Fred
warnings
engines
Coleman
Associates
desk
Shiite
nose
compare
Ann
deputies
freeze
Chapter
unfortunate
sing
batters
deserves
slot
rice
Products
infection
interception
closest
Jessica
peers
Magic
compelling
ambitious
bullpen
soul
affects
AM
moon
appeals
combine
sealed
yard_touchdown
lone
humor
Mac
Sports_Writer
symbol
assumed
scared
U
employs
evil
spreading
motorcycle
Planning
Real
excessive
cautioned
recycling
mothers
counted
exclusively
graduates
Minneapolis
curb
superintendent
Peace
Access
Ten
convert
stealing
evacuated
exceed
tours
tall
threaten
vessel
shy
Cuban
Pro
incumbent
patterns
SA
valid
reminded
criminals
heritage
Lopez
smooth
interior
burst
ignore
lowered
flames
View
unemployment_rate
broker
lobby
Abbas
substantially
approaching
poised
Within
loud
Wyoming
enrollment
radical
Thousands
Around
Big_Ten
drinks
Jamie
awesome
technique
Small
private_equity
Golf
Twins
dealer
chicken
acceptance
appreciation
figured
globally
arrangement
drops
Coalition
mandatory
Donald
tables
dies
collision
ingredients
partnerships
resign
helpful
Stone
stakes
interceptions
stone
Sir
prayer
sand
Tiger
Brady
draws
motor
aviation
solely
guitar
Summer
overwhelming
elementary
Hezbollah
rehabilitation
Book
HD
Thus
king
devoted
lands
Bobby
Christians
northwest
Moreover
volatile
tribal
Alberta
accusations
crops
MVP
script
catching
wealthy
effectiveness
Student
Broncos
bidding
wrestling
al_Qaeda
Spencer
vendor
implications
tower
recalls
hybrid
genuine
fails
scrutiny
Medicine
venues
Manning
Katrina
rebuild
right_hander
hiding
mental_health
milestone
Chiefs
strict
wondering
referee
replay
e_mails
civil_rights
knife
Royals
Sanchez
Security_Council
silence
cause_actual
credibility
oriented
Democratic_Party
hung
removing
traditionally
intensity
corporation
bounced
dated
losing_streak
nominee
FIFA
opposing
Luke
Asia_Pacific
enthusiasm
Pierce
certification
trash
Khan
Bruins
Fish
battles
retiring
Users
realistic
observers
Sports_Network
CA
Standard
Christ
lengthy
Madrid
premiere
isolated
spotlight
inspiration
trigger
staged
frozen
initiated
Design
iPad
alternatives
missile
pitchers
avoided
dependent
pose
contests
National_Guard
Therefore
Military
searched
gallons
appreciated
awaiting
facilitate
sentencing
slump
invitation
Vatican
shipments
Knight
occupation
Darfur
expression
Somalia
Barbara
cope
remainder
reflecting
distribute
Musharraf
strikeouts
movements
bonuses
Posted
confirmation
notion
aide
fare
medication
laboratory
rescued
exchanges
Billy
joke
screens
Engineering
jewelry
Challenge
dedication
Superintendent
pressing
Convention
cent
nowhere
engagement
X
crown
recruit
Neil
Dec
legendary
businessman
Race
Seoul
Room
Fourth
ancient
alike
postponed
constitute
courtroom
endorsed
supplied
Eight
testify
youngsters
releasing
Huskies
mystery
Boys
applying
sustain
Latin
commentary
Against
Environmental
timely
default
wire
loyal
engaging
agrees
eggs
Future
kidnapping
totaling
warrants
condemned
Reynolds
counseling
jumping
reveals
classified
ally
consolidation
wickets
conjunction
indicating
crowded
gradually
mere
Reporting
object
Francis
vegetables
organize
helicopters
Budget
International_Airport
strip
instructions
politician
spiritual
urgent
concentrate
th
chaos
revolution
substitute
advances
Ball
finishes
wells
sweeping
pressed
adjustments
contacts
mound
terminal
bounce
Linux
Troy
Environment
turmoil
Oct
Brooklyn
Operations
Penn_State
spell
payroll
Parents
belt
nurse
Griffin
Dublin
Sunni
History
semifinal
hospitalized
jazz
Founded
credited
downturn
log
outbreak
frustrating
voluntary
motorists
thick
Thank
Nationals
desktop
dust
specialized
task_force
pursuit
Colombia
experiencing
Celtics
stays
forgotten
appealing
Light
favored
briefing
Crawford
pit
Arena
commodity
Almost
Kate
iron
functionality
Swedish
identifying
Yeah
overs
farms
stepping
deserved
bearing
acknowledge
hardest
environments
Chad
compiled
visual
strengthening
explosives
reluctant
craft
magic
Derby
gallery
tasks
inaugural
generous
layoffs
landmark
zones
successor
influential
dividends
hub
violate
voices
Whatever
chat
Stuart
3_pointers
vacant
legislature
packaging
sometime
Main_Street
strain
governance
pure
seemingly
Bible
transparency
legally
optimism
Resources
Feb
logo
Monroe
Player
Major_League
excellence
advisers
refuse
Stock
Jimmy
Rich
Honda
It'sa
performers
Walsh
speeds
permitted
Nancy
entries
lasting
foreclosure
bird
chart
Burns
aides
Nation
incredibly
seal
economics
beliefs
consultation
tragic
Qatar
adventure
reaches
collective
controlling
reject
governing
evident
hungry
gray
stored
softball
clerk
Pope
advisor
fame
array
barrier
salt
emphasized
steals
Drew
actual_results
violating
Care
Magazine
grandmother
detainees
advocacy
spectrum
reiterated
Heritage
explaining
Greater
conservatives
northeast
casualties
sorts
Chile
sends
mall
plunged
matchup
Commonwealth
indicted
tire
Training
automaker
locker_room
commenting
perception
Kuwait
differently
dirt
leak
loving
Eagle
embassy
cattle
crackdown
shipped
ACC
confusion
Goldman_Sachs
Holdings
insurers
committees
scientist
Car
Corp
branded
adjust
grid
accelerate
Palmer
logged
embrace
bombings
designers
Hart
Tax
pastor
shutout
kicking
absolute
bone
Working
upside
Industrial
printed
subsidies
relation
reliability
eliminating
Nine
#.##pm
painted
mechanism
sizes
define
Syrian
Walter
outing
muscle
educate
boxing
consolidated
Property
intelligent
betting
United_Kingdom
legend
outlined
township
shuttle
borrowing
Celtic
barriers
PTI
theaters
Jacksonville
Shaw
Markets
Down
battled
snap
schemes
Nov
prompting
entity
breakthrough
triumph
ton
clearing
Quinn
minus
printing
entities
trails
Twenty
Jenkins
refugees
positioned
excuse
missions
Knicks
apiece
celebrities
Lt.
midfield
Page
chairs
Bolton
rebuilding
Premier
sidelines
Hornets
Hunt
tension
Katie
Reading
electoral
District_Attorney
invite
disputed
Israelis
portable
President_George_W.
Sure
Remember
tuition
Syracuse
intentions
app
launches
Growth
Titans
Income
refusing
Hernandez
graduation
Owens
Studies
raced
posed
renewable_energy
Redskins
Penn
=
ought
Curtis
publish
securing
Coast_Guard
sole
Organization
couples
Jeremy
Jazz
clashes
separated
Cougars
breath
panic
elaborate
organizing
Study
mature
directions
meantime
Wild
denies
fighter
motivated
plug
weighed
Was
viable
harsh
bitter
reconstruction
Tourism
assurance
Continued
Cross
gender
spam
Webb
Jane
dose
supportive
Xbox
introducing
outfit
hat
slid
sacks
tanks
lottery
tender
instant
stupid
interface
Knights
goalkeeper
enemies
arranged
Saddam_Hussein
diplomats
deploy
youths
iPod
Fans
subsequently
contention
median
jurisdiction
burglary
DJ
slower
advantages
wheat
worthy
shame
conflicts
quietly
Favre
benefited
Space
diluted_share
complain
inevitable
Sky
Customers
heating
desert
Cohen
Editor
Patterson
Warner
mountains
internationally
mosque
pressures
eBay
AIG
ballots
Commercial
occasionally
besides
Sharks
turnaround
concessions
remind
hip
entertaining
willingness
episodes
courage
shifted
foreigners
Due
counterparts
sentences
merchandise
perceived
McCarthy
satisfaction
fulfill
defenders
Tampa
silent
GAAP
tourist
treaty
holdings
adjacent
North_Dakota
Band
applicable
Emily
bowling
Nigerian
wicket
objects
Says
applicants
Yemen
freed
Android
gonna
layup
Lynn
bridges
3G
endorsement
examination
Wimbledon
educated
tensions
Anne
explosive
exceeded
imported
fantasy
Putin
suits
recognizes
m
minimal
Full
medal
Springfield
reads
locals
trailing
prayers
v
suggestion
workplace
Play
Embassy
Between
Target
simultaneously
Consumers
Bar
Rachel
Change
universal
Burke
Milan
lifting
financially
Islamabad
recruitment
quest
Holmes
grave
lobbying
Edmonton
Lynch
argues
bold
brutal
reply
renowned
reconciliation
Jeffrey
Lucas
sleeping
Richards
computing
sooner
switched
laptop
surveyed
reservations
woes
swim
marking
breathing
Porter
blind
immune
founding
opted
unrest
##ers
curriculum
shifts
Workers
Middle_School
Operating
troubles
midway_through
Myers
Bahrain
distributor
TD
damaging
Samsung
coup
representation
Snow
notify
manufacture
random
institutional
transported
protein
mounted
bottles
Visit
presenting
pleasure
Search
surveys
accomplish
Nepal
Easter
declaration
dumped
Winter
weigh
evolution
accusing
upgraded
teeth
lately
loses
browser
politically
researcher
Carl
leagues
subscribe
Capt.
stabbed
OPEC
Jean
Experts
coupled
Conservative
accessories
accountability
Marion
setback
heels
Share
apartments
factories
Mission
outcomes
stalled
ANI
Nathan
Hurricane_Katrina
alarm
jumper
centered
integrate
advertisers
apologized
Jake
GE
unfortunately
Morrison
Amazon
Owen
chocolate
shootout
tale
finalists
marine
flooded
ethanol
tunnel
charts
accountable
conclude
cook
conceded
stomach
enjoys
ugly
IPO
Add
wrist
clinics
tally
arrives
Albany
volleyball
drunk
Prices
parole
spare
Elementary_School
Romney
goalie
Boulevard
Flyers
inability
Julie
concerts
Libyan
liabilities
Glenn
radiation
risky
Tracy
worn
inspectors
tag
enrolled
convenient
amongst
exploring
NSW
Hayes
dirty
unnecessary
guided
volatility
Norway
pipe
unemployed
ST
Myanmar
Private
SUV
decides
Hey
inform
Travel
Come
Ramirez
disputes
institute
veto
expired
grand_jury
issuing
Records
yields
fundraiser
specialists
competed
implied
magnitude
comprised
Leader
keeper
P.
Cal
aggressively
devastated
Serbia
5th
chasing
Smart
spends
Could
graphics
Southeast
cats
Aug
Polish
ridiculous
v.
affiliates
sellers
telecom
sponsorship
supervisor
naturally
Liberal
Going
calculated
publicity
slammed
retained
teenage
#-###-###-####
regarded
justify
radar
mounting
Furthermore
bathroom
liable
Soccer
climbing
substance
Eddie
pets
oversee
Newton
trademarks
District_Judge
populations
boundaries
gunmen
pot
dubbed
Raymond
enforce
beneath
ports
debts
advancing
adverse
Arthur
trusted
caps
flown
Buy
kidnapped
Purdue
declare
punch
pink
tossed
presidential_candidate
affiliated
harvest
lucrative
soaring
Bristol
competitor
Kabul
jointly
possibilities
Centers
Rochester
commonly
Leeds
destinations
stating
pregnancy
Davies
Think
experiment
Record
T.
hostile
Gulf_Coast
expectation
Coming
Cheney
indoor
olds
IRS
spaces
Researchers
Homeland_Security
firmly
passionate
Rockies
taxpayer
collections
W
sacrifice
basement
Xinhua
vessels
Sr.
Dixon
Shannon
Private_Securities_Litigation_Reform
Appeals
horror
drag
visibility
react
cooperate
restoration
raw
Harvey
grows
elbow
entrepreneurs
describing
conferences
aiming
Starting
Wall_Street_Journal
Oxford
presidents
belong
Greene
flags
Carol
semi
prohibited
motivation
continent
assessed
Tommy
toy
continuous
steadily
Triple
reserved
tops
Restaurant
efficiently
bureau
southwest
EUR
en_route
weekends
Travis
elimination
finalized
RBI_single
forthcoming
lanes
dragged
refer
emotions
Dale
ceiling
midst
beats
root
degree_murder
Senators
Source
IANS
memorable
Jose
determining
persuade
awful
seeds
logistics
languages
Together
affiliate
occurs
connecting
Doctors
labels
grandfather
spark
cell_phones
Earnings
ripped
sized
Too
marathon
SC
planted
prospective
farming
tier
Brussels
miners
farmer
proportion
deer
PGA_Tour
detectives
acquiring
cousin
Robertson
cry
Meyer
preparations
upgrades
hill
Schwarzenegger
warehouse
Film
transform
##/##/####
Transport
Control
warn
practicing
Order
Healthcare
Recently
campaigning
limiting
teaches
Retail
Cisco
stranded
b
voter
workshops
Register
transformation
displaced
maximize
Cricket
terrific
significance
Woman
outsourcing
AND
apology
aired
CHICAGO
exploded
fierce
contrary
Brett
unacceptable
Gallery
payable
Gilbert
progressive
Member
anxiety
scholarships
â_€
privilege
catcher
constructed
Ambassador
Tiger_Woods
maps
Staff_Writer
Vincent
Perez
friendship
failures
sounded
insist
applies
##.###
Cambridge
icon
Tonight
mobile_phones
phenomenon
Durham
succeeded
colleague
Rhode_Island
vocal
Burton
Chuck
Making
Credit
hook
resumed
«
Belgium
Amanda
atop
relay
Uganda
Theater
execute
boosting
greeted
relate
Partnership
corners
G.
fireworks
grain
diagnosis
scary
southeast
Browns
Brisbane
Performance
Chief_Executive
Motorola
scoreless
toxic
missiles
shorter
H.
mutual
UN_Security
forming
Force
Getting
Salem
Morgan_Stanley
birdies
varsity
bread
blogs
partially
cement
decisive
Suite
negotiated
feeding
Days
toughest
consent
undefeated
orange
Current
Glasgow
Johnston
halted
paintings
Gaza_Strip
automated
AL
publications
adjustment
Talk
extends
Max
conscious
poorly
crying
genetic
sideline
cleanup
specializes
Stanley
lows
seminar
instrument
dangers
columnist
celebrations
floods
seasonal
grounded
Andrews
consultants
Sanders
Villa
journalism
petroleum
shifting
soared
Cairo
academy
owed
Storm
NFC
withdrew
Snyder
borrowers
interaction
memo
flowing
confused
death_toll
dominate
sank
loyalty
diesel
encourages
courthouse
followers
Grace
Zone
Community_College
rallies
robbed
notably
magazines
embedded
apologize
settlements
sidelined
NJ
Gregory
Denmark
indicators
lender
liquid
nutrition
Dunn
Devils
talents
fits
preview
thanked
turnout
ladies
outlets
colorful
Scientists
publishers
employ
premiums
competitions
Taking
twenty
relieved
suburb
Ridge
birdie
keys
demonstrates
heroes
Campaign
superb
gauge
equities
automakers
courtesy
Girls
murdered
disability
halfway
Steel
anxious
strategist
strengths
Trojans
minded
mild
humanity
manufactured
centuries
supporter
Riverside
handing
pray
opt
screaming
Opposition
cheese
undertake
combines
shoulders
Temple
Elliott
severely
confidential
streaming
Logan
Marcus
stakeholders
recreation
notable
peer
golden
bite
speeding
co_founder
Indonesian
bears
.##
deck
Help
pupils
laying
premises
detection
Pac
searches
caring
Child
profession
governors
hurting
inquiries
contender
Fortune
relaxed
literature
Norman
charities
discounts
historically
Heart
Wolves
travels
bass
throws
Million
Lloyd
non_GAAP
stunned
minimize
detect
patience
Nevertheless
regain
Leading
Final
Spartans
Northern_Ireland
detected
metals
photographer
floating
showdown
chemistry
questionable
Mariners
Mall
Give
openly
holder
Professional
Bill_Clinton
Never
impacts
pin
indicator
watchdog
Vick
scattered
rider
I'ma
obesity
evacuation
wherever
Registration
wrap
reduces
commissioned
albums
Austria
sticking
Run
stretched
cruise
tee
associates
torn
ace
Maria
rocks
styles
illegal_immigrants
beds
mines
importantly
Left
trademark
Abu_Dhabi
Clemson
blowing
hostage
sewer
proving
develops
diluted
bolster
Link
patents
Trading
Jamaica
beneficial
credible
complaining
cooling
nominees
Season
transparent
erupted
terrorist_attacks
Reagan
receivers
Strong
undergo
GPS
Ted
Human_Rights
nominations
FCC
attracting
Robin
Everton
smell
Production
Diamond
considerably
contracted
psychological
desperately
Discovery
fingers
remembers
aftermath
t
Emergency
Nadal
Charleston
origin
Portsmouth
oversees
insurgency
podium
analyze
monitors
amendments
sum
mainland
hitters
ousted
mill
citizenship
bloody
stint
ie
Principal
Case
Auto
Wall
Auckland
knocking
tenants
Has
supervision
Said
Edinburgh
disagree
regret
Better
pact
brokerage
starring
allocated
Dick
celebrates
consortium
abilities
Sign
reminder
supply_chain
inclusion
brown
Inside
haul
Lauren
Fall
vs
artistic
Agreement
eventual
Georgetown
flows
closes
structural
locate
General_Assembly
unbelievable
thereby
assure
satisfy
Leonard
presentations
cancel
flavor
fastest_growing
ski
Dolphins
surprisingly
tipped
Pete
strokes
Miles
Oliver
Stephanie
unhappy
communist
Philip
denying
influenced
South_Dakota
Marlins
attendees
shootings
beloved
Plans
shocking
double_digit
recipient
Goldman
recipients
predecessor
warns
crashes
plagued
Wellington
recipe
plain
whereas
routinely
Daily_News
civic
appointments
---
Newman
quote
runway
offenders
investigator
assignment
please_contact
inspections
recruited
Father
labeled
PR
flagship
buzz
Dow_Jones_industrial
Defence
Mid
Captain
enters
contenders
Phase
garbage
borrow
commanders
Ocean
builds
Reserve
Comcast
rides
biological
BMW
emotion
Hilton
commerce
weighing
abandon
Yale
Daniels
dining
multimedia
Lowe
knee_injury
occasional
casinos
eased
phrase
·
demonstrators
Geneva
islands
Death
Jacob
skeptical
semester
rhythm
Shell
Gardner
expire
General_Motors
accessed
undermine
mate
Wi_Fi
avoiding
Recreation
Less
weakened
boasts
contents
pickup
pockets
Pyongyang
renovation
grip
Sprint
UBS
certificate
Philippine
combining
Citizens
Recent
shaped
promotional
Virginia_Tech
fold
visa
reliance
scare
refusal
broadcasting
united
joked
switching
Financial_Services
freshmen
fortune
Bradford
Matthews
visitor
Store
poured
subscriber
ounces
Ducks
touring
tear
bout
swine_flu
Net_income
workout
pants
convenience
schedules
Dance
glory
F.
trick
panels
laughing
seller
evaluated
beaches
chains
Late
predictions
sore
Demand
Beyond
steep
jersey
separation
mad
clip
Chargers
c
AAA
Louis
diving
Elementary
instruction
AOL
amateur
anchor
placement
contend
bipartisan
wasted
utilize
limitations
National_Weather_Service
donor
likelihood
Welsh
Clearly
Main
confrontation
Gen.
wondered
oil_spill
Champion
cure
Moon
appeals_court
upbeat
inner
pope
Ask
horrible
aluminum
outreach
ICC
countless
distinct
skilled
gold_medal
raids
needing
Grade
pence
directing
Bangalore
ramp
Wagner
info
separately
sacked
casual
quarterfinals
Nicole
Learn
diplomat
Moody
overturned
partial
Kosovo
Fitch
advise
chef
pile
Set
editors
concentration
Firefighters
Fla.
rewards
HR
Northwestern
technological
console
withdrawn
worship
assuming
Kenny
corrupt
Grand_Prix
cheer
Intelligence
catalog
habits
improves
processor
Low
Eastern_Conference
sheet
boycott
shadow
homicide
Critics
inspire
musician
Freeman
Dayton
Basketball
interference
Soviet
disposal
rivalry
embarrassing
brokers
Apparently
AFC
Barrett
banner
Had
Sciences
MTV
complications
intensive
Derek
convincing
borough
6th
7th
Ravens
disabled_list
smiling
trauma
kickoff
lawmaker
undergoing
Castro
transformed
Merrill_Lynch
evaluating
lacked
Moss
Save
prescription
trustees
regulator
abused
committing
O'Connor
passport
monetary
ECB
Arlington
pursuant
balance_sheet
fragile
Suns
Stern
Short
header
Hampton
apps
Ferrari
Brewers
instances
sworn
chronic
Wizards
twist
medicines
Cancer
inventories
blend
anticipates
Affairs
Albert
Throughout
poker
Anna
Carr
machinery
revenge
Busch
shortages
Padres
bacteria
mud
misdemeanor
Arnold
fax
bin_Laden
Davidson
intact
weird
swap
strained
Glen
creditors
insurer
dig
Shore
hip_hop
posters
revive
summary
rhetoric
recommends
Analysis
associations
exam
Soon
zoning
vary
Story
architect
Australians
Halloween
VP
medications
Capitol_Hill
defeating
flash
aggregate
naked
correspondent
policemen
uncle
Bangkok
paperwork
patch
turf
Bernanke
British_Columbia
counterpart
Years
dip
Mercantile_Exchange
Human
tent
instantly
Political
PA
cigarettes
medals
shortstop
buys
Mugabe
Anaheim
Penguins
Johnny
trader
coordinated
Master
Marc
prepares
finest
announcements
wounds
retreat
disorder
Excluding
regulated
outright
costing
settings
reversed
Win
classrooms
Certainly
incorporated
strengthened
quotes
SAP
shooter
bullish
plaintiffs
downs
themes
Non
Astros
distributors
semi_final
Colin
Teachers
revise
precisely
unidentified
exempt
Premiership
gunman
Boyd
Fresno
immigrant
municipalities
tissue
sustainability
rolls
Cavaliers
Executive_Director
characteristics
Pistons
EBITDA
belonging
Simmons
refinery
enthusiastic
filming
AMD
capitalize
quarterbacks
bay
sake
correctly
lacking
precise
linking
Bills
practiced
creativity
frequency
lovely
Margaret
iconic
recruits
Stop
woods
rivers
##-#-#
General_Manager
unlimited
libraries
Gay
gates
Providence
accomplishments
Hartford
dipped
lyrics
connectivity
Schmidt
Garrett
skipper
steam
divide
x
stem
Jacobs
dishes
Baylor
repay
Off
Lower
barred
animated
layer
belongs
Sue
enacted
NL
Shane
battered
teamed
confronted
Kenneth
genes
televised
relax
Carson
Jesse
hailed
casting
hospitality
vast_majority
administered
Pitt
rounded
it'sa
fiber
folk
elevated
successive
analyzed
credit_cards
Mt
lesser
Augusta
Chen
Kurdish
Doyle
thorough
poster
Finland
Hillary_Clinton
studios
performer
Karzai
Plaza
Pa.
Traffic
pensions
Punjab
assembled
American_Idol
ordering
bother
Long_Island
semiconductor
consistency
Already
Al_Qaeda
Someone
Tucker
cake
worrying
Nicholas
Inter
Rutgers
amounted
Sheffield
Conservatives
helmet
marry
obtaining
uranium
dental
homered
tracked
wheels
Playing
altogether
exercises
Prevention
Princeton
favors
quicker
Boy
smashed
fixing
Hockey
dairy
Branch
afterward
scorer
photography
instructor
yelling
Hurricanes
complement
affidavit
Downtown
disturbing
Marie
murders
Americas
compact
examining
threatens
Bowl
Chief_Financial
Advanced
reflection
touching
shelters
proves
pizza
prisoner
diamond
½
Shawn
instrumental
copyright
lakh
uncomfortable
anonymous
crushed
Ahmadinejad
brave
obstacles
juvenile
contingent
Learning
merit
##m
Foreign_Ministry
voiced
clicking
economic_downturn
piano
stripped
adapt
enhancing
romantic
interact
Orioles
Phelps
blacks
Forward_looking
webcast
speeches
billing
Peru
Peters
ear
Joel
composed
Melissa
convictions
cops
Bay_Area
PowerRating
d
Unless
Megan
Mars
interpretation
Very
Mount
Born
sang
listened
Rays
inmate
credentials
Sport
Noble
8th
domain
imaging
disc
poses
Jobs
NCAA_tournament
loved_ones
Chester
healing
iTunes
NHS
steroids
appoint
permanently
agreeing
wide_receiver
outscored
cinema
Wireless
photograph
heated
documentation
leaked
processed
signatures
Heather
differ
parallel
Half
wash
Superior_Court
PRNewswire_FirstCall
athletics
editing
incorporate
justified
racist
Clay
observations
Immigration
migration
rehab
Real_Madrid
levy
Joyce
stabilize
mechanical
QB
precious
lowering
valuation
convoy
prosperity
lovers
Managing_Director
booth
Speaker
tumbled
forwards
customized
Guide
highways
dignity
Vice
report_abuse_button
tends
universe
Initiative
infant
mates
fishermen
lacks
Brent
Romania
Mohammed
royal
accelerated
wary
Walk
Johannesburg
transfers
impacted
spite
Update
conclusions
Casino
contaminated
Living
Tell
bosses
promotions
Windsor
resist
undertaken
PCs
jokes
Holiday
Islanders
embraced
characterized
Tucson
dismiss
Gators
batteries
suited
file_photo
Merck
fitting
lend
Crown
Mail
Hicks
misleading
insights
freely
social_networking
Battle
Toledo
shortfall
tribunal
Puerto_Rico
deficits
clearance
assessments
duration
accompanying
Flight
heart_disease
Falls
standout
Osama_bin_Laden
surrendered
slim
assisting
kit
UConn
genre
abuses
K.
overwhelmed
documented
Level
mirror
Baby
Competition
Outside
defenseman
dependence
portions
Bulgaria
AA
Interest
recreational
consuming
breakdown
cutting_edge
revealing
bust
VA
Mass
racial
predicting
timetable
wooden
encountered
Hours
imminent
belonged
anticipation
polling
Fletcher
trim
sue
whilst
cemetery
ultra
Find
deferred
chased
Kathy
maturity
mentor
pub
bilateral
Deal
cycling
Carlos
chiefs
Ex
injuring
flee
rebounded
ammunition
distant
buyout
circles
fares
secrets
Expo
expressing
Urban
niche
toss
Rockets
constituents
Lindsay
compares
nightmare
Tulsa
rockets
Readers
priest
expenditures
Nets
oxygen
Sources
suspend
preference
inadequate
confirms
Jersey
Cable
Malaysian
refrain
revolutionary
hunger
controller
scam
easing
Nash
Leadership
booking
rode
livestock
Lost
habit
Reporter
functioning
signaled
deliveries
penny
Circuit_Court
slash
Bernard
Santa
backyard
villagers
Beck
wounding
Elsewhere
Meet
surrender
Rivers
Stanley_Cup
Brunswick
accommodation
intellectual_property
Cardinal
Lawmakers
dish
regulate
predicts
performs
netted
liquor
Actually
handles
judged
Tibet
oral
drilled
relying
modified
suburbs
tornado
Olson
destroying
washed
9th
hurdles
spy
bizarre
Nations
shook
Councilman
reopen
Hoffman
Rebecca
Universal
unanimous
invisible
Something
meltdown
Palm
Mubarak
Berkeley
protocol
derived
coordination
dam
Finance_Minister
councilors
twin
scratch
navigation
Vodafone
monitored
airplane
lure
Meeting
Drug_Administration
Click
doses
Product
verify
Code
bloc
Airbus
Fortunately
Czech_Republic
Kirk
Airways
okay
fleeing
ethical
Sundays
consumed
Guardian
pharmacy
brush
upheld
traditions
ears
Guard
intercepted
expires
faithful
renew
believing
Willis
raped
Bucks
digs
punt
Donna
submission
desired
sexual_assault
Telecom
bones
Participants
metro
insult
Preston
Thomson_Reuters
receipt
Leaders
existed
Hot
clinical_trials
organizer
concentrated
Round
Berry
spectators
nationals
persistent
portal
averages
overseeing
appliances
minor_league
naming
mixture
rebounding
dismissal
Paterson
cultures
staffing
debates
search_engine
Want
bullet
disruption
sovereignty
clubhouse
Castle
MySpace
confessed
Blvd
functional
urges
blasted
candy
feat
indications
unaware
Families
Helen
installing
fouled
Seahawks
Culture
angle
objections
armed_forces
Blagojevich
Thunder
Veterans
Legal
incomes
Cardiff
generic
solicitation
proposing
curious
bankers
contestants
prisons
squeeze
Chambers
gangs
BCS
Voice
Hansen
Joint
compatible
Spirit
tribe
Torres
BY
propose
UPI
smallest
Election
wisdom
container
MS
blessed
activated
eve
spike
councils
owe
earliest
winger
census
pumped
wings
promotes
continually
Rescue
incoming
beside
Congressional
Bird
endorse
spur
Sarkozy
cornerback
spirits
evolved
threshold
Rod
Drug
minors
qualities
backdrop
##:##_AM
Nintendo
rig
Freshman
Christie
bets
gross_domestic
West_Indies
informal
rewarded
protective
Wells_Fargo
Cody
recognizing
urgency
handset
Commons
Charter
boot
hottest
partisan
Few
shutdown
ceremonies
journal
Bobcats
independently
kindergarten
chipped
amortization
Industries
critic
blessing
cotton
procurement
##:##_PM
silly
deliberately
Rooney
BlackBerry
violates
tapped
Saturdays
Chapman
insisting
##st_century
Number
uncovered
Biden
Bengals
alleging
epic
blues
merchants
concludes
punished
complexity
Newark
Carpenter
pioneer
Vietnamese
Danish
Sunderland
dancers
Across
financed
fabric
bicycle
Vista
Pfizer
references
Clayton
forests
infections
Perth
collaborative
Admission
regards
albeit
Ahmed
dominance
Portuguese
VoIP
uniforms
Jennings
patrons
Blackburn
nasty
Eventually
restart
Campus
dawn
hate_speech
wiped
holy
renewal
slashed
Georgian
plunge
O'Neill
identical
manual
comic
Christine
Vision
Nixon
prone
gaps
refers
Weber
declaring
Wang
nod
allocation
autumn
Beckham
shoe
Zach
Previously
alerts
fundamentals
exemption
thoroughly
vibrant
Madonna
hostages
Lexington
Norfolk
Foley
successes
tackling
repeal
Grand_Slam
ranch
absent
Floyd
zoo
genocide
mum
lawn
telephone_interview
Hull
Arroyo
tense
motive
cooperative
bubble
attraction
overweight
Hurricane
analyzes
Gordon_Brown
pursued
statute
surviving
UFC
bleeding
alerted
jets
exploit
SAN_FRANCISCO
measuring
Webster
Cunningham
mount
Quality
supervisors
shaking
booming
Petroleum
Welcome
alumni
mentally
floors
builders
echoed
disabilities
Entertainment_News
O'Neal
Wii
tallied
circulation
Hungary
whoever
valley
USB
yearly
Haven
Nichols
Behind
Daytona
railway
arguably
EPS
rubber
Either
True
endured
Buckeyes
Brothers
instructed
underneath
Associated_Press_writers
FM
supposedly
leases
ensures
Deutsche_Bank
assassination
blasts
Technical
Benjamin
Resort
logic
outgoing
laughed
Rookie
cellular
Gibbs
IOC
unrelated
imposing
Nor
confront
hamstring
Send
sack
Leon
defenses
diversified
wrongdoing
scrap
Samuel
gene
Timothy
knees
Equity
Revolution
Try
Editing
Brand
siblings
Trail
expenditure
concepts
wines
foreclosures
Volunteers
profiles
Java
glove
Double
settling
emerging_markets
incurred
twelve
forefront
Newport
racism
overcame
IN
Patricia
MA
Mar
FAA
West_Ham
Vienna
Century
imagination
cigarette
privately
adopting
scan
Thornton
Apart
lean
Salt_Lake_City
lecture
Bear
Latino
Long_Beach
wreck
Earl
Metropolitan
Start
Wendy
planting
alter
graduating
stellar
Abbott
Flash
overhead
####.##
CDC
glasses
customs
banning
Similarly
harassment
Opera
apparel
colored
grace
unsuccessful
stationed
attackers
measurement
Yorkshire
males
containers
automobile
skip
bronze
Wolf
revival
distinction
leading_scorer
detective
Baldwin
wide_variety
Email
sinking
baskets
Witnesses
resolutions
distinguished
translate
superstar
consisting
##/##/##
Tottenham
cop
dump
Kingston
sequence
calories
Coca_Cola
processors
Otherwise
tail
intervene
Country_Club
swinging
Official
outlet
explosions
firearms
specializing
breed
receptions
healthier
educators
excluded
strictly
Angel
inception
restrict
p
laptops
refund
designing
Independence
looming
Courtney
stockholders
Clemens
alternate
purse
Liberals
Commissioners
Pelosi
varied
Williamson
Formula_One
Block
surfaced
secular
ours
lighter
Fitzgerald
construct
Wildlife
lit
ate
Girl
sensitivity
refuses
Nolan
Ruth
correction
recipes
toe
Q1
Mom
allowance
attitudes
FTSE
occurring
aerospace
Frederick
clinched
hander
Guy
honestly
Hopkins
derivatives
Caldwell
Congo
Rights
stemming
Nissan
unanimously
fixture
Queens
Fraser
therapeutic
CFO
sluggish
sticks
sciences
Mercury
Palestine
commissions
©
Electric
pumping
possessions
Direct
ferry
giants
dominating
Plant
ET
mobility
congressman
Conservation
Hawkins
additions
Chandler
codes
petrol
Raleigh
competitiveness
disappearance
seize
HSBC
WHO
slaying
reopened
respects
brick
shelf
Focus
password
Engineers
intimate
bias
Gross
Klein
Tower
shine
wholly_owned_subsidiary
rings
Judy
Final_Four
forums
laser
Article
unlawful
thankful
Sandy
demonstrating
romance
smuggling
housed
moratorium
Starbucks
Running
pivotal
Silva
pipes
Survey
namely
beverage
denial
sights
stamp
Valencia
owning
issuance
inviting
contributor
Statistics
cleaned
tide
consult
observe
emails
relies
Cornell
boots
Alice
habitat
reservation
parish
runoff
prompt
Funds
Gonzales
outrage
Sound
corridor
Dad
watches
Gadhafi
listings
Partner
Employees
Benson
fraction
Belgian
smartphone
depressed
realizing
sexy
addiction
creator
Command
clouds
starred
Donovan
voluntarily
BEIJING
Plymouth
retention
jacket
Czech
hurts
County_Jail
treasurer
Harry_Potter
hurricanes
underwent
Health_Care
pan
vaccines
scenarios
Ronald
Patients
gardens
solved
stimulate
misconduct
leap
Whitney
shelves
candidacy
Lehman
Ralph
Sterling
Empire
Thomson_Financial
appetite
bothered
FEMA
shell
injection
essence
Dodge
eligibility
sliding
Voters
pen
bans
automation
T_shirt
borrowed
£_##m
verge
Mavericks
poultry
Allison
Mortgage
promptly
sensors
worlds
Athletic
Manufacturing
expose
Mickelson
accurately
Stage
structured
Thomson
setup
suffers
Vanderbilt
relied
Victor
Victorian
reunion
marched
Dawson
Middle
tags
Revenues
tonne
shower
TORONTO
shirts
continuously
Eugene
Lawyers
similarly
batter
Reyes
positioning
Oak
Real_Estate
personalized
towers
supermarket
notorious
happiness
Sale
filmed
monster
mysterious
Thirty
Sharp
Catherine
kilometer
Common
Weaver
specified
Imagine
AG
ice_cream
logical
fiction
isolation
indexes
vintage
East_Coast
Invitational
acute
reminds
glimpse
berth
Ultimately
Average
Perkins
Public_Library
Grove
Sophomore
yielded
draft_pick
Lafayette
grams
subjected
pirates
streams
notices
framing
clues
firefighter
ward
liter
decorated
embarrassed
helm
tightening
collectively
cheering
fascinating
Studio
sided
mice
technically
reasonably
notification
replaces
Lyon
surprises
collided
lining
archive
coordinate
Mother
IV
Rivera
shattered
bandwidth
mouse
constituency
welcomes
ditch
practically
outdoors
Leslie
Put
shouted
restoring
Aberdeen
stabbing
Adelaide
positively
clause
Stay
discretion
defending_champion
extremists
Mining
Continental
Sudanese
drills
abusive
Sara
sympathy
ailing
unified
grandson
welcoming
Bad
newer
Georgia_Tech
arise
comprising
portfolios
Joshua
territories
SmarTrend
Hanson
pork
Yahoo!
notch
Betty
Diane
Inn
WTO
misses
sink
throat
allegation
commercials
Sutton
Byrd
reactor
Manila
Sherman
Gateway
Circuit
punched
LP
Trinity
abducted
PG
Ethiopia
#,###.#
retirees
frames
admitting
demolition
requesting
hooked
Cyprus
Headquartered
attributable
Schneider
themed
disrupt
USDA
Age
Lancaster
Front
laughs
Homes
Frost
dean
governmental
judiciary
Norwegian
horizon
hunters
portrait
makeup
Azerbaijan
NZ
Higher
Copenhagen
Kelley
emphasize
landfill
utilizing
Event
Ricky
arc
surging
Tests
newsletter
clinch
poetry
Crosby
egg
vertical
ignoring
Dog
weaknesses
supplying
accidentally
exporters
midday
MLS
miracle
qualifier
Teams
suppose
leasing
mandated
cracked
portrayed
bogey
certificates
compensate
slots
heroin
bargain
El_Paso
Steele
Dream
plates
sailing
dispatched
defensively
experimental
boring
staging
statue
propaganda
Indy
consolidate
Dollar
diplomacy
farther
supplement
capturing
standoff
rejection
priests
innovations
lengths
BOSTON
attributes
Events
Edge
observation
Li
participant
contributors
rewarding
clever
bikes
Palace
Blue_Jays
McCoy
Europeans
prolonged
treats
selecting
Dana
leisure
burns
clarity
exceeding
professors
Enron
wished
fruits
Supporters
weakening
profound
F1
inauguration
Verizon_Wireless
stranger
Banking
hat_trick
smoothly
slain
Fast
Pearson
specifics
akin
Clippers
George_W._Bush
contentious
Fiji
freezing
Russians
caucus
contends
exchanged
Circle
premature
sidewalk
Parkway
greens
rout
Texans
Schwartz
Rd
unexpectedly
cease_fire
Venezuelan
bow
Karachi
Andre
Join
Payne
downloaded
Nuggets
Regardless
Close
HBO
harmful
Human_Services
Ph.D.
militia
Rules
pinch
IAEA
homeland
fancy
Barclays
ranged
Olmert
uninsured
scrimmage
individually
clay
accord
deceased
disastrous
redevelopment
Dead
protections
unconstitutional
E_mail
termination
seating
disappear
undoubtedly
twins
uprising
Edition
Rebels
autopsy
thumb
installations
Jackie
stretches
Diaz
Fatah
HK
drain
nickname
caliber
minorities
endless
Baptist
Except
comparing
em
#:##_PM_ET
wild_card
outfielder
subtle
Fulham
companion
broadcaster
density
fraudulent
Tunisia
Ever
Saskatchewan
Word
exhibits
biotechnology
adequately
batch
Upper
gay_marriage
nightclub
afterwards
fluid
famed
NYC
contamination
pumps
Sept
Computer
scheduling
Economists
Short_Term_PowerRatings
Gomez
Municipal
cooked
feeds
disciplined
T_shirts
suing
Soviet_Union
slumped
raided
indigenous
dug
distributing
Economic_Development
Side
popped
grandparents
primaries
Kane
spun
Nationwide
lifts
sequel
Applications
arrange
BA
Hardy
economically
Darren
Economy
honoring
dial
defeats
Juan
Diana
BYU
artwork
growers
leather
modeling
Worldwide
shaky
Follow
illnesses
pronounced_dead
singers
pictured
WWE
personalities
staffers
Adrian
rubble
###-#
inspiring
Q.
neglect
hype
trace
bullets
HIV_AIDS
Hannah
Shelby
Bedford
pairs
preceded
Memorial_Day
necessity
Rio
unusually
McLaren
formats
crashing
dive
demographic
exams
pools
guilt
contracting
void
Erin
Flames
Omaha
Sweet
float
rented
Dozens
opera
asthma
intellectual
layers
ambitions
reliever
downside
acknowledges
Responding
Zoo
loads
Movement
surpassed
marketed
hammer
gesture
ladder
ATLANTA
bits
negotiation
broadly
Aside
mechanisms
mineral
grief
hefty
masses
Cemetery
Pre
arson
touches
Return
aspirations
orchestra
temple
Works
alleges
slice
bye
Large
Olympic_Games
specify
converting
Andrea
phenomenal
Arctic
totals
forecasting
Beth
corresponding
Ortiz
cholesterol
sheer
Willie
arbitration
contested
stormed
hence
fortunes
outings
freight
inclusive
junk
Curry
Netanyahu
Arabs
leaning
Visitors
warming
Basic
hedge_funds
sailors
CDs
assumption
heightened
authentic
photographers
tricky
taxi
keyboard
packing
flies
Ukrainian
unsure
stats
Upon
sprint
sacrifice_fly
brink
ranges
Harrington
Kazakhstan
chaired
railroad
precision
Lead
delight
Animal
congregation
Speed
Forbes
distinctive
privately_held
jumps
highlighting
bull
Sox
stretching
Box
tunes
patrols
trainers
Cruz
prosecuted
monetary_policy
Norwich
Tomorrow
Burlington
logging
publicly_traded
Operation
grabbing
infamous
Janet
unauthorized
Angela
Randolph
cushion
gamers
Arabic
protesting
tumor
Catholic_Church
DVDs
exile
preservation
poorest
charitable
UPDATE
improper
rains
riot
intentionally
screened
Lightning
configuration
Gene
International_Monetary_Fund
prohibit
quantity
experiments
trap
unavailable
Corey
lied
woke
£_###m
punish
Aussie
balances
utilized
Annan
criticize
furious
harbor
hinted
playground
qualification
confined
wonders
Resource
mask
Fort_Worth
gig
sponsoring
oath
renewable
rap
ANC
T_Mobile
phases
digging
ambition
losers
shrinking
shouting
RSS
reversal
Wachovia
Frankfurt
billed
consequence
Tennis
Dawn
pinned
Faith
pulls
preserving
Emma
proposes
price_tag
Offer
Outlook
installment
blanket
Chennai
pointer
Shortly
Innovation
designation
Environmental_Protection_Agency
exhausted
posing
mentality
federation
Morning
accordingly
rigorous
identities
hint
United_Arab_Emirates
selections
Track
Speedway
Writers
assessing
Blue_Devils
upward
FA_Cup
baseline
pond
patented
expands
Especially
Cape
verification
academics
campuses
Gore
foremost
handsets
Canucks
Strategy
Know
plight
heal
thieves
queen
Nature
solidarity
aided
overlooked
tolerated
Drake
Strategic
coat
fertilizer
Santos
granting
trustee
planners
Elections
evacuate
inaccurate
columns
Manuel
advertisements
firearm
golfers
Farmers
driveway
lightning
Norton
altered
standpoint
Florence
tighter
subsidy
indirectly
Howell
richest
sunny
absorb
consulting_firm
guides
NEW_DELHI
YMCA
astronauts
Beirut
weaken
Really
opposes
evolving
Recovery
Presidential
jeans
Customs
Usually
festivities
touted
lobbyists
beta
toilet
grocery
Sanford
policeman
plaintiff
luncheon
listeners
kg
AFL
Amsterdam
Rodgers
costumes
flawed
Pierre
mass_destruction
builder
Essex
Fresh
pledges
Wigan
outskirts
closures
businessmen
module
royalty
criticizing
RCMP
nicely
Jakarta
Joan
Often
Austrian
tendency
certainty
partnered
wheelchair
obstacle
sheets
proactive
coroner
shaping
smiles
foundations
Interior
Q3
pm_ET
festivals
TSX
cabin
smokers
protects
Neal
exclude
stuffed
doubling
showers
rupees
purely
semi_finals
Saunders
cares
topping
Tory
Croatia
Hancock
Consider
Heights
catastrophic
breast
shutting
chemotherapy
tolerance
bullying
wives
fallout
tapes
Carey
Brennan
Wheeler
ballpark
Nike
gloves
Globe
whites
Saint
benefiting
southeastern
Investments
Blood
upgrading
Benedict
earns
Lawson
Natural_Resources
piracy
animation
Harbor
town_hall
Red_Wings
Abdullah
attacker
emergence
Ice
precedent
organizational
literacy
basics
presumably
La
Xavier
northeastern
Springs
Democracy
aces
Proceeds
stimulus_package
article_contains
MW
Bring
enthusiasts
generates
coveted
Books
Winnipeg
Halifax
Sri_Lankan
lover
clarify
Prosecutor
elegant
concussion
jam
wears
Chair
Annual_Report
disrupted
dumping
nearest
shipment
Stephens
vulnerability
behind_bars
liberty
Personal
Somali
seventh_inning
disasters
accomplishment
comparisons
advising
Securities_Act
downloads
spinning
tenth
envoy
Freddie_Mac
Fairfield
offensively
old_fashioned
crises
fairness
Aurora
Detective
cancellation
perimeter
Knox
Holding
MLB
Flynn
Kay
filter
acquitted
Job
boarding
inconsistent
Corps
Cindy
boundary
Soldiers
surgical
constraints
troop
Dylan
FA
navigate
Pacers
Apr
TDs
Appeal
robot
Brewer
Madoff
Tri
scholars
footprint
Mediterranean
Best_Buy
resistant
possess
youngster
partnering
attractions
reactions
swift
backlog
franchises
cheered
prescribed
Hayden
Wichita
Everett
fabulous
homeowner
innocence
darkness
imagined
terrain
tore
Paper
modules
fumble
Sarah_Palin
Argentine
strive
Beatles
Debbie
proceeding
Hewitt
Available
Disease_Control
dismal
insurgent
Cavs
Leicester
cared
grasp
tablet
Fridays
mold
submitting
Cats
justices
arising
compounds
Copyright
Beginning
Holocaust
staggering
narrative
delicious
pills
Base
spreads
liver
Protection
scorers
Giuliani
Harold
productions
Home_Depot
leveled
Anything
Victory
Colombian
literary
consist
Muhammad
insufficient
turkey
intriguing
pros
varieties
lightly
narrowly
scoreboard
costume
fatigue
minor_injuries
awkward
Basically
adaptation
Hillary_Rodham_Clinton
salmon
outrageous
assurances
Levy
Mack
tighten
Nielsen
finalist
Potter
Alzheimer
briefed
breeding
Bucs
assaulted
accuse
marketers
shallow
Defense_Secretary
Barton
prediction
bump
Higgins
reconsider
optimize
Carlson
tortured
Germans
deliberate
Employment
eighth_inning
UT
cute
expressed_concern
lodged
doping
euro_zone
slipping
Senior_Vice
Call_###-###-####
curve
commodity_prices
Holly
embarrassment
renovations
Boulder
grabs
assumes
Sep
Pro_Bowl
potent
pause
Bollywood
rage
versatile
leased
gunfire
inherited
fluctuations
Highland
Past
CBI
reorganization
sheep
isn'ta
Pride
unpopular
tangible
Keller
Wake_Forest
hats
composition
forged
rocked
affordable_housing
Q2
iron_ore
shorts
Kremlin
Rita
homework
trafficking
hikes
narrowed
weighs
Walton
entertain
vice_versa
unpaid
Canyon
rainfall
optional
cookies
overwhelmingly
Civil_War
intensified
Daly
crafts
Morales
protested
ample
clips
equality
recordings
transferring
accepts
tactical
Infrastructure
Boone
tube
Solar
widow
grim
CRM
Cape_Town
Consulting
A###
fastball
Experience
empire
imprisonment
Jaguars
buttons
ensured
Julia
Networks
debated
predictable
naval
fever
divorced
flip
Marsh
immense
Haitian
steer
riots
Barker
confusing
Crystal
consume
sprawling
emotionally
Need
Q4
airing
rematch
inherent
hills
ninth_inning
seafood
Acting
-##
aggression
umbrella
undertaking
Distribution
ministries
MSU
exceptions
rifle
al
reacted
Panama
Probably
admissions
Akron
Sandra
Teen
spilled
Van
nephew
optical
Winning
hedge_fund
authorization
broadcasters
Trevor
Roddick
inspector
cooperating
advisors
tribes
cleaner
impoverished
asserted
Task_Force
notched
commercialization
branding
golfer
ERA
recycled
gays
Champions
reigning
accumulated
troubling
upscale
OF
Wine
infield
cooler
Anti
owes
nuts
thrilling
muscles
widening
Veteran
Rising
without_limitation
Rush
Samantha
Pool
Athletics
sampling
Ban
graphic
hampered
Weather
Pay
Reggie
shaken
interfere
pleasant
Mill
busiest
clutch
forensic
waved
comprises
Sex
Marathon
debuted
carbon_dioxide
chunk
undercover
Catholics
downgraded
Buck
tents
newcomers
Grizzlies
Nikkei
Movie
edited
instability
presently
Skype
integrating
fuels
Say
swung
judging
translated
surf
Card
Nazi
immunity
eg
Fields
refineries
prosecute
challenger
Weekly
thriller
Re
Mann
amenities
casualty
refuge
handgun
List
PlayStation
genius
pedestrian
succession
premise
volunteered
objected
bowlers
rumor
unsafe
therapies
Dancing
disagreed
dire
barn
bowled
Rumsfeld
Gill
chambers
Gartner
OSU
Tour_de
Iceland
flaws
mailed
preserved
offensive_coordinator
outline
destined
blank
applause
exotic
squads
continuity
wishing
regained
approves
savvy
packs
defining
Song
fitted
Mine
migrants
filmmakers
Davenport
satisfying
tentative
encouragement
minimum_wage
ejected
wallet
Eleven
insider
amazed
enjoyable
merits
cheating
beneficiaries
Conway
analytics
confirming
tanker
Main_St.
adapted
blaming
via_email
Wind
entrepreneur
Forty
stringent
Spears
sensor
cease
raw_materials
disciplinary
mln
Weekend
juniors
Kandahar
toured
Mo.
horrific
interrupted
indirect
consumer_electronics
choir
insured
heavyweight
Sweeney
Shirley
shield
prevents
Initially
burial
large_scale
bounds
seminars
indefinitely
registering
loading
magical
delicate
involve_risks
allied
notebook
lingering
Somerset
Filipino
Video_More_>>
Kerr
engineered
hurdle
skate
Representative
qualifications
miserable
breathe
cracks
NOT
unnamed
bride
Reform
Commander
messaging
hurry
deadliest
Belarus
comfortably
AT
Aggies
neat
enhancements
Lahore
principals
Traders
bucket
Launches
thrive
Communist_Party
inevitably
ruined
discounted
Paulson
UW
stiff
verbal
Islamist
liberals
retaliation
Allan
Dalai_Lama
shrink
commence
Mass.
GP
drastic
spurred
pouring
merge
garnered
Properties
whatsoever
theirs
angered
councilor
wasn'ta
Ramsey
tongue
autism
Liz
reign
compromised
tripled
surgeon
Chevrolet
efficiencies
Pioneer
Algeria
Longhorns
Ministers
analyzing
bidders
Fallujah
Risk
hectares
hatred
Excellence
money_laundering
Businesses
prop
accuses
solving
appropriately
Bentley
tainted
mega
slick
unwanted
Fowler
Kurds
Tyson
Adding
tolerate
artificial
herein
Fleming
cows
----
Belmont
Month
Brighton
United_Methodist_Church
Karl
Pearl
Self
influences
Thursdays
Vaughan
leaks
flavors
crush
touchdown_passes
binding
lightweight
Crime
enforced
risks_associated
Jammu
overview
pressured
irresponsible
laughter
Laboratory
transplant
females
continuation
thirty
infants
Katherine
slate
fatalities
defensive_coordinator
Choice
grand_slam
readings
Jill
stems
societies
Gerald
Crews
retaining
dunk
lakes
impress
Liu
Danielle
kiss
aunt
bracket
Lambert
donating
Concord
terminated
countered
classmates
dealership
Mercer
magnificent
Prison
brains
charm
LTTE
cycles
catastrophe
Raptors
assistants
Morton
buck
truce
whereabouts
Oilers
navy
Model
epidemic
Gujarat
champ
skiing
humble
assignments
Investigation
chief_economist
geographic
openings
architectural
pronounced
physics
answering
backward
variations
Rule
nonetheless
air_conditioning
Enterprises
enduring
persuaded
Sims
Singer
MBA
Sears
filmmaker
deter
severity
specifications
Joey
Communication
deteriorating
checkpoint
BUSINESS_WIRE
Malta
psychology
policing
Silicon_Valley
Quote_Profile_Research
tailored
submissions
spouse
reimbursement
#.##am
Terms
Morocco
compassion
credit_crunch
Hillary
Trinidad
Deputies
oh
ideology
purple
Commenting
formidable
Bend
sexual_abuse
departed
deploying
conscience
discharge
stack
heck
Rain
swings
advises
connects
shotgun
Hockey_League
bishops
tactic
efficacy
dugout
Randall
edit
Afghans
Credit_Suisse
dock
electorate
Rugby
praying
taped
Devon
Gallagher
grocery_store
bang
Vernon
Dover
nonsense
cow
amend
catalyst
Minutes
pushes
yards_rushing
timeline
cables
ratios
Milton
Wow
Rwanda
Executive_Vice
flower
Basra
chorus
technicians
Salvation_Army
unveil
rescuers
Camden
speculate
Hispanics
scrambling
Heath
Relations
backers
privatization
Mesa
cheers
micro
SMS
butter
seated
Considering
proxy
speedy
diverted
Waters
Pratt
alarming
caller
Westminster
wreckage
approving
drum
definitive
Small_Business
merged
Shop
Palm_Beach
Similar
PS3
Aid
projection
Toshiba
batsman
contributes
Valentine_Day
PGA
competent
Treasury_Secretary
Phone
downhill
nerves
Sacramento_Bee
massacre
contempt
ridden
elder
Time_Warner
subdivision
-#.#
orbit
distraction
receipts
tricks
relentless
Roman
demise
incorrect
subway
Platform
platinum
considerations
Little_Rock
unpredictable
putt
commuters
resisted
rumored
Mueller
drums
comedian
biology
peoples
Marine_Corps
verified
ingredient
RIM
seasoned
disk
Pike
heaven
pad
clue
Telegraph
VIP
exterior
Kathleen
historian
auctions
Canton
summoned
brakes
BT
excuses
cracking
imperative
occupancy
Roma
rope
O'Donnell
seizure
PARIS
Oscars
inter
evolve
Iranians
Munich
Table
lacrosse
cried
FILE
Reno
Release
Mario
denounced
Blazers
Politics
negotiators
diagnostic
initiate
relates
adjusting
Coal
Istanbul
CEOs
Bates
##-##-#
Reserve_Bank
signaling
FC
k
resorts
rand
nerve
loop
sovereign
leaking
Hogan
prevail
Brittany
Lindsey
Vegas
sweat
grassroots
slept
mortality
slogan
Horn
pipelines
Fellow
Mustangs
tempo
counselor
Title
Citi
shoots
DL
kingdom
Siemens
Idol
Ranch
flurry
investigative
Cheryl
blockbuster
stir
Spa
constructive
reinforce
Public_Safety
labs
Securities_Exchange
trailers
Stafford
Barber
Deborah
escalating
rainy
HOUSTON
tariffs
Renault
Loss
arraigned
RFID
guitarist
vegetable
prefers
Dillon
TOKYO
databases
bent
pickup_truck
tested_positive
lethal
cluster
Nonetheless
Serbian
Fulton
mergers
powerhouse
Walters
rejects
Guantanamo
manufactures
collaborate
hazard
unofficial
Col.
Visa
Lance
Belfast
lifelong
distress
detailing
Savannah
Des_Moines
AU
Jensen
sensation
Calls
vying
blows
mob
calculations
crushing
CPI
Yang
Huntington
incomplete
smartphones
Approximately
sculpture
bloggers
consulted
antitrust
royalties
restraint
treasury
cruel
o
duck
ceasefire
waiver
timber
Glass
needy
Rhodes
Fannie_Mae
Tiffany
outfield
Were
Virgin
variable
trimmed
waving
Ivory_Coast
Barnett
Malone
readiness
statutory
safeguard
testament
nickel
ordeal
symbolic
goodwill
General_Electric
classical
NCAA_Tournament
destructive
Boston_Red_Sox
bases_loaded
kits
ineffective
await
thrust
Cold_War
mixing
DUI
discharged
metropolitan
strangers
ETFs
paths
dynamics
Tar_Heels
founders
Watkins
Welch
sailed
drafting
unite
factions
Huckabee
vague
repaired
municipality
Football_League
forgot
motor_vehicle
tastes
interpreted
whistle
Congressman
sensible
Wilkinson
monopoly
Hyderabad
backgrounds
streamline
advertised
handy
deterioration
spared
Merrill
progressed
Suffolk
displaying
emergencies
subjective
goodbye
prohibits
camping
accompany
Dragons
Category
taxation
tightened
Ryder_Cup
paired
Simply
toddler
Amid
strides
bankruptcy_protection
redemption
Berlusconi
Practice
Interior_Ministry
gentle
gifted
Single
Corrections
Mercedes
bore
originated
loser
Old_Trafford
pits
dresses
cash_equivalents
intoxicated
Chancellor
Lyons
contacting
underwater
closet
fullback
viruses
prep
enroll
overly
prints
visas
amnesty
Bahamas
Wilmington
rested
happier
Emirates
Nate
remarked
thriving
spa
Kingdom
drowned
invites
overdue
Aviation
prostate_cancer
Golf_Club
Questions
Christina
invented
saga
stylish
influx
corrections
mapping
broadcasts
stall
composer
fronts
Labor_Day
secretly
#,###,###_#,###,###
MRI
crunch
scramble
piled
approvals
consciousness
layout
quoting
Worcester
Hu
abortions
backlash
obese
breakaway
Core
Sabres
Kolkata
Mullen
registered_trademarks
Sooners
bankrupt
Hindu
attracts
hammered
lesbian
Tuesdays
realization
cites
endangered
roadway
Separately
Jenny
surfing
Fuller
tenant
status_quo
Powers
proudly
endeavor
proteins
Turn
lively
Talks
text_messages
Shareholders
Changes
mechanics
accelerating
Damascus
Funding
plots
Driver
doubleheader
NASDAQ
groundbreaking
Ecuador
Value
Vote
Coffee
Solution
Antonio
Shakespeare
Drivers
advertise
intimidation
museums
Joy
chairwoman
translation
bird_flu
quota
Julian
undergraduate
withstand
DETROIT
repurchase
preferences
recommending
attempted_murder
e_commerce
Cafe
Tories
discourage
neglected
Lieberman
sprained
creatures
catering
leveraging
Chevron
Kenyan
Bowman
cancers
consultancy
discovering
Burnett
microphone
delaying
withdrawing
morale
sidewalks
balloon
Shields
Convention_Center
Parish
Baptist_Church
warranty
bucks
Ellen
seriously_injured
dilemma
Gloucester
Truth
Ronaldo
servicing
troopers
Sheriff_Office
eaten
cubic_feet
ruin
inducted
Carlisle
govern
Diamondbacks
Marks
prevailing
Advisory
offs
analog
Pop
commanding
mutual_funds
escorted
Wenger
worthwhile
Cambodia
chooses
concession
sounding
insiders
exceptionally
Children_Hospital
explored
genuinely
dreamed
hitting_.###
Blu_ray
Angola
paced
Phillip
NOTES
quarterfinal
Villanova
sail
supervised
situated
Apollo
Whenever
skies
maritime
Far
wellness
Libby
exercised
probable
powder
penetration
Holt
Hit
Bronx
frankly
comprise
Goodman
Moving
unwilling
Named
steering
def
Opponents
rallying
sanctioned
auditorium
&_T
earmarked
extract
applauded
Economics
Greenville
Telstra
stride
trusts
skating
tackled
relocate
bypass
deflected
smiled
impending
bath
auditor
Body
Wolverines
Cannon
heating_oil
aka
Got
Canberra
Naples
commenced
statistical
packaged
gradual
prescriptions
mansion
Galaxy
Buchanan
Caroline
accidental
More_>>
Maxwell
pointers
collegiate
enhancement
LeBron_James
Rally
St._Petersburg
inclined
clashed
restitution
lieu
Pastor
Happy
Gardens
Jail
irrigation
Baxter
Jun
relocation
porn
employing
jeopardy
kidney
subcommittee
Talking
tagged
Grammy
Larson
edges
swimmers
Marquette
enrichment
viewer
endure
tapping
peaked
McConnell
invaluable
overshadowed
washing
FDIC
halls
callers
revisions
rapper
traced
supermarkets
Maliki
Progress
mandates
Realtors
Correspondent
monument
timeout
Hammond
Y
cyber
dragging
Investor_Relations
resting
dried
parameters
straightforward
Move
thread
demolished
Hastings
affirmed
Tate
raise_awareness
fathers
Dick_Cheney
Shiites
USA_Today
Lowell
mindset
regrets
Habitat
scaled
impaired
acknowledging
Becker
Friedman
killers
Schultz
Administrator
defensive_tackle
enforcing
workouts
ins
OS
Mosul
pie
yelled
BB
rejecting
deliberations
Fairfax
winless
yielding
Evan
prototype
indicative
New_Year_Eve
Cumberland
CC
irrelevant
sacred
essay
attends
bomber
dealings
Amber
cream
waived
Son
TSX_Venture_Exchange
Organizers
drawings
Hard
someday
murdering
Nortel
Fiat
fixtures
ecosystem
Kerala
surfaces
Sierra
textile
PHILADELPHIA
flipped
swiftly
Ill.
Forward
editions
capitalized
introduces
multinational
gorgeous
Burma
equalizer
bug
salvage
environmentally_friendly
McNabb
Arafat
Moran
plotting
Avery
pill
exceeds
foes
thermal
professionally
Santa_Clara
cage
Stoke
Mayo
occurrence
Contract
Sparks
clinical_trial
educating
Crusaders
Liberia
#####_######
discusses
reservoir
accustomed
sanctuary
Website
injunction
lungs
snacks
extradition
Wednesdays
Shaun
Maoists
directive
optimal
Nuclear
shade
All_Blacks
Palestinian_Authority
concentrating
eleven
occupy
Manitoba
tourney
ensuing
referees
Martin_Luther_King
Content
Claire
resumes
methodology
timed
downed
bookings
virtualization
trophies
communicating
Forest_Service
Blackhawks
utilization
Omar
Lennon
Near
Bowen
inspected
Volkswagen
Am
yours
Honduras
Farrell
behavioral
sums
Stockton
Ashes
NW
fueling
UPS
Christianity
relocated
Macy
Chicago_Cubs
congestion
architects
groin
Spaniard
southwestern
lackluster
corps
stones
MacDonald
contended
hires
et_al
consultations
depreciation
energetic
corrected
norm
Hamburg
Hussein
bare
fulfilling
Railway
chickens
Quote_Chart_News
prudent
Trent
siege
fearing
strains
sergeant
Tripoli
realizes
FREE
scandals
Division_II
Electronic
countryside
revived
cellphone
repayment
long_awaited
diminished
gamble
Haley
proliferation
spanning
Leo
rebate
scrapped
Sixers
manslaughter
organs
revelations
footer
Standards
luggage
smarter
recalling
Ronnie
misery
crisp
Maharashtra
mock
legitimacy
EA
biotech
revision
faded
Byrne
Connor
Jared
improperly
revelation
winding
Norris
Wong
Pine
sacrifices
consisted
vacuum
definite
resolving
blockade
Zardari
human_beings
Martha
imprisoned
registry
measurements
Hanover
Damon
fielding
undisclosed
OT
governing_body
diamonds
AC
Great_Lakes
EMC
Aston_Villa
#######
surgeries
rampant
cartoon
cab
mileage
proposition
predominantly
Clinic
reinforced
waterfront
Great_Britain
Attorneys
exercising
realities
unconscious
Stevenson
exploited
Analyst
hated
campaigned
Lodge
postal
rebates
juice
anytime
Brooke
Ronald_Reagan
Site
Slovakia
Letter
Livingston
Savage
extensively
greet
remedy
yard_TD
thoughtful
##am
Archives
banners
lobbyist
defines
deported
fouls
bureaucracy
speculative
interactions
Roth
malaria
salad
consolation
Amazon.com
Foreign_Affairs
Pace
inspect
Actor
slapped
Sacbee.com
festive
prostitution
varying
etc
compliant
floated
batsmen
asleep
Malcolm
transforming
Boyle
idle
newcomer
legislator
Coyotes
generator
hydrogen
overturn
Booth
outfits
Sally
Trial
puzzle
recount
famously
DA
stairs
Tree
petitions
Mile
Carolyn
Face
Advertising
Berkshire
unspecified
settlers
File
couch
Alonso
vacancy
Badgers
condo
Lehman_Brothers
condemn
laundry
worsening
damn
Rural
Sunnis
whopping
injected
cafe
Trustees
glance
permitting
Midland
cater
northwestern
rein
Fernandez
Brenda
Fashion
crosses
desirable
per_capita
occupants
Bath
Osborne
Medvedev
Wins
hedge
hazards
ink
nail
ATM
Brendan
IPL
rendered
Always
fielder
Mondays
optimized
SE
Cloud
Made
Alexandria
understandable
Cultural
moms
Type
mitigate
Civil
Stan
abide
Gaming
venture_capital
FXstreet.com
Canadiens
Profit
advertisement
Tamil
Woodward
VAT
kicker
intake
Grill
soup
precautions
problematic
Specifically
wraps
incidence
Ready
conditioning
collateral
airplanes
enlisted
bishop
reckless
Santa_Barbara
completes
Bass
Pass
Doha
Rodney
Fifty
researching
bearish
constitutes
tab
Cut
postpone
Complex
Musical
Opening
grounder
Wing
Primary
Kraft
pioneering
theatrical
Name
lounge
Equipment
termed
Chronicle
Christchurch
pandemic
Ring
annualized
Gazette
Success
anglers
heights
Bluetooth
convey
Photos
generators
exploitation
gateway
Va.
red_carpet
viability
Orders
mid_##s
greenhouse_gas_emissions
slew
vicious
Mansfield
TVs
Bermuda
incorporates
ICE
absurd
pounded
SARS
**
Shah
gospel
Hearts
barbecue
sentiments
Maurice
NT
Cabrera
dare
Supply
lens
behaviors
Originally
Paula
interrogation
TCU
blankets
Automotive
Cathedral
demo
trunk
##.#_ppg
vocals
coordinating
Benton
responsive
Hayward
mercury
Southampton
civil_society
commands
exposing
relieve
obsessed
masters
Integrated
identifies
volunteering
accessing
billionaire
Parsons
Ladies
refined
Tanzania
Parade
LG
generosity
eagle
Greens
doubtful
Bulgarian
avenues
Dodd
optimization
autonomy
arose
Tel_Aviv
wipe
executing
Bhutto
precaution
marker
Marriott
erosion
Fischer
elusive
Flores
restructure
paralyzed
abduction
acclaimed
circus
proceeded
dimension
Yates
allege
H#N#
Detectives
robberies
Sussex
Santa_Cruz
translates
punches
Wise
Lagos
tablets
parcel
chapters
bio
Millions
laden
rattled
Pam
switches
Copper
battlefield
splitting
Native
reeling
terminals
Nasdaq_composite_index
Merkel
coins
Beat
delegate
doomed
Boise_State
conducts
Zawya
absorbed
McMahon
organ
Sorry
adhere
Statements
dressing
assertion
carpet
Rudd
unleashed
outraged
widened
flagged
reminiscent
remake
beverages
equation
TO
bingo
bleak
plummeted
tariff
rugged
Normally
devastation
LCD
squeezed
screenings
gala
beans
speculated
checkpoints
malicious
IDC
pads
distracted
Adobe
residency
Horton
Daley
mercy
remarkably
Nicholson
Kendall
Dominican_Republic
smash
boarded
aligned
disagreement
Free_Press
graffiti
belongings
environmentalists
Career
slavery
retrieve
Bartlett
Agencies
undergone
Erie
Fayetteville
aisle
happily
Growing
crafted
ventures
Louise
Dear
Brock
encounters
Roosevelt
Westwood
shrimp
BSE
mighty
Mich.
policymakers
Suzuki
Rio_Tinto
drainage
establishments
carved
Twenty##
placebo
irony
drastically
publishes
Gregg
annoying
mourning
bell
cruised
sufficiently
toppled
qualifiers
disorders
NDP
motorcycles
I.
Armenia
cite
nearing
responds
Karnataka
aggravated
rows
tomatoes
spray
Taiwanese
Philly
dressing_room
modify
alleviate
easiest
erased
Tina
distressed
authorize
liters
eurozone
'S
Publishing
poet
applicant
Swift
probability
Chan
affiliation
empower
Collection
landslide
Leave
calculation
Bauer
upstairs
yeah
breadth
breached
tended
reactors
incorporating
greenhouse_gases
WikiLeaks
marriages
Broadcasting
Spitzer
curfew
sauce
Zuma
Duffy
Finnish
flick
merchant
frightening
Fuel
NGOs
Roche
Ahead
prevalent
Keeping
prescription_drugs
Porsche
distributes
collector
congress
boast
nevertheless
drummer
scouting
heavier
wrestlers
retains
Addressing
globalization
subdued
bruised
Missing
Denise
respectful
Below
Gabriel
inappropriate_comments
Annie
cult
twisted
Calhoun
Capitals
sex_marriage
myth
Supervisors
survivor
work_ethic
ensemble
Guam
deadlock
governed
cafeteria
Programs
auditors
Compared
harmony
uncommon
moisture
spacecraft
gravity
TB
swelling
prevailed
Question
Fremont
seamless
serial
Watts
mortar
Previous
archived
aerial
Impact
artifacts
McKenzie
hail
prolific
finalize
Bolivia
destiny
poles
Hood
mediation
Rocky
sunshine
Coventry
extensions
collectors
ankle_injury
FOX
headache
derby
Gap
dancer
Doctor
Schumacher
Fight
brace
Fargo
vandalism
Los_Angeles_Lakers
privileged
Natural
Colombo
First_Amendment
justification
butt
rim
un
Treasurer
gearing
Quick
GB
Thaksin
freedoms
ICT
canal
MIAMI
Initial
honesty
Shepherd
confiscated
Creative
bribery
recurring
Weston
retreated
passports
startup
integral_part
simulation
rents
Bihar
dessert
skipped
captures
Accordingly
underwriting
congratulate
Taipei
advancement
Great_Depression
psychiatric
extremist
Sadly
blames
Jerome
freestyle
rookies
###,###,###
Marty
combinations
Writing
Canterbury
framed
archives
Abraham
shapes
Natalie
privileges
scoreless_innings
MMA
ASU
technician
mirrors
slashing
traces
Greenwood
Tanner
resilient
expelled
G##
interval
secrecy
ideological
banker
landlord
labeling
assaults
barring
sandwich
hauled
peacefully
American_Legion
bidder
Finance_Committee
progression
shores
maiden
Kobe_Bryant
Torre
simplify
Certain
Studios
press_releases
antibiotics
proximity
accent
soundtrack
SD
fulfilled
locks
calf
jurisdictions
portray
Wesley
Lab
Roethlisberger
Honor
Dustin
wasting
Programme
gotta
Tesco
Lang
drained
paved
forge
Wakefield
Plains
induced
CT
deployments
Gets
footsteps
appliance
Public_Works
Venus
Aspen
anticipating
calculate
Bear_Stearns
Agricultural
relegation
Info
Roger_Federer
coin
preceding
Spokane
Anyway
pretend
downstream
printer
tandem
+##
rebuilt
Winners
Host
unveiling
McGee
Oman
Netflix
Signs
AJ
protocols
marginal
descent
Lakes
nets
hardship
Sugar
classification
hiking
Edison
fortnight
poisoning
defends
outdated
indoors
commercially
scouts
State_Condoleezza_Rice
Election_Day
satellites
Dalton
Pack
Marina
Cherry
selective
dear
scout
blogger
Tony_Blair
Nairobi
Zurich
Milford
Notes_@
motel
phrases
Volume
yoga
guiding
Fifth
Santiago
backbone
dispatch
chefs
Solomon
Memorial_Hospital
Seniors
memorandum
elephant
Trump
Census
pilgrims
De
Dogs
###-####_ext
chaotic
forgive
scholar
Lottery
decreasing
Supervisor
fundamentally
Fitness
abundance
Hold
enact
controllers
NE
AD
hazardous
granddaughter
captains
surroundings
younger_brother
contraction
trooper
envelope
Nice
Ventura
Knoxville
diocese
Alcoa
bouncing
exporter
Hutchinson
awaits
stresses
Maggie
Twelve
heavy_rain
slap
disruptions
flesh
Dinner
daunting
House_Speaker
reunited
Geithner
novels
reinstated
ash
brass
Ironically
myriad
ravaged
Panel
motions
goaltender
stumbled
LED
polled
Deep
planner
bargaining
palace
jewelery
pour
clergy
independents
accredited
pedestrians
Bus
commute
Citizen
Yemeni
Guinea
Hassan
clearer
Delphi
balancing
.....
Beverly
presided
scarce
running_mate
Molly
tropical
Herbert
Present
Monaco
Crisis
Prime_Minister_Manmohan_Singh
parliamentary_elections
Madden
Hitler
radio_stations
interstate
sympathetic
Sat
feedback@sacbee.com
slumping
Highway_Patrol
place_undue_reliance
Giving
Shelton
realm
Frontier
Nova_Scotia
umpire
Times_Square
inflammation
Application
starting_lineup
laboratories
sewage
pavement
sanitation
Heroes
quantities
remotely
blueprint
coupons
dictate
underdog
Collier
captive
asbestos
durable
headaches
Albuquerque
Penny
gratitude
deleted
Luckily
stoppage
Skinner
Sheridan
convertible
spouses
exported
Poll
orientation
Crist
origins
accountant
graders
patches
cart
JV
triggering
classics
ACT
farewell
rulings
Tamil_Nadu
Bruno
refinancing
text_message
commentator
Founder
lips
RTTNews
UAW
photographed
ropes
EMS
eliminates
Tibetan
spirited
UC
Lucy
fielded
marred
Forget
acceleration
centralized
embracing
rightly
Preview
rational
scrambled
thumbs
bait
due_diligence
bugs
Likewise
Highlights
minerals
identity_theft
cardiovascular
Mountaineers
interviewing
tales
Eaton
conditional
sensational
asylum
Massey
setbacks
dissent
Jayhawks
repeating
conventions
susceptible
burnt
sloppy
commended
homeland_security
unanswered
remark
DENVER
Middlesbrough
exhibited
reassure
AS
pigs
Franco
Valentine
revamped
Webber
Seth
metrics
thrill
charming
buddy
Reilly
Hence
skepticism
adventures
inexpensive
hints
Humane_Society
centerpiece
offender
Colonial
Jesus_Christ
complimentary
respectable
cans
Offering
associate_professor
buzzer
Teacher
Gutierrez
vanished
yacht
modifications
McBride
pig
sparking
Sensex
terribly
broaden
Lamb
LNG
Observer
withheld
Historic
soap
Kurt
paramedics
Lori
suspicions
Commonwealth_Games
rack
##:##.##
sincere
Trophy
supplemental
entirety
Absolutely
Southeastern_Conference
Cards
Surrey
pm_EDT
commentators
similarities
bunker
Olsen
pounding
Neighbors
Juventus
EC
whereby
Amendment
blowout
instructors
Interactive
intermediate
subsidized
Flint
frenzy
ghost
Frazier
virtue
chancellor
thefts
SW
Kimberly
Lohan
Cat
embattled
Violence
penalized
Katz
sport_utility
MORE
UNC
pave
Costa_Rica
uphold
drunken_driving
Uruguay
guessing
onboard
stacked
Jo
progressing
PPP
magistrate
Lots
Ingram
discoveries
Volunteer
artillery
Horse
wrapping
ignited
Public_Schools
illustrate
wires
invisible_item_flow
fills
mm
practitioners
potatoes
Romero
slaughter
Joining
envisioned
ransom
pistol
Owner
Laurel
satisfactory
Wings
grind
banquet
excludes
lectures
breaches
Enter
skull
Border
Putnam
Funeral_Home
Hale
conflicting
transmitted
Greenspan
behave
historical_facts
Harding
refreshing
cumulative
Venice
hilarious
fool
incremental
refining
liaison
Ramos
evenings
Hyundai
Princess
Login
Sector
transporting
beautifully
Customer
McLean
Swan
distributions
Chief_Operating_Officer
lung_cancer
inspirational
admire
Lester
Alvarez
Robert_Gates
Farmer
Anchorage
Dundee
awarding
faulty
pupil
mills
stronghold
relaxing
Gold_Coast
master_degree
gently
Dorothy
Typically
promoter
Mini
flock
Ventures
Us
FX
Led
generals
Gavin
unparalleled
similar_expressions
tumors
Debt
illegal_immigration
pairing
Style
wired
directs
psychologist
undermined
Clean
IRA
Honolulu
negligence
Sunshine
Climate
Marvin
Symphony
apple
Stores
Irving
spectacle
hug
jobless_rate
socialist
Guys
homemade
stadiums
crease
accreditation
benchmarks
mental_illness
Domestic
daytime
Combined
moderated
Regarding
stressing
Cynthia
Ivan
downgrade
Patel
ratified
particles
Foods
landowners
reminding
sedan
Mideast
Exploration
inserted
underscored
Weeks
hugely
conglomerate
Earnhardt
methamphetamine
fog
debating
Lilly
bowler
slides
Weiss
AC_Milan
safe_haven
gardening
deserving
hourly
admired
rocky
Beavers
Mayer
Yankee_Stadium
batted
Britney_Spears
Polk
wilderness
Guatemala
Motion
lasts
patrolling
stable_condition
wetlands
dimensional
Complete
robots
decreases
Emerson
Moses
grueling
Cruise
paving
Qantas
coincidence
substances
ON
partially_offset
exhibitions
institutional_investors
prey
jobless
determines
raping
Course
ACLU
collects
fade
Cars
altitude
cave
sway
###p
Dudley
child_pornography
lads
outlines
spate
transitional
lonely
capital_expenditures
Human_Rights_Watch
ax
symbols
Charlton
Griffith
scanning
Iverson
updating
deprived
Buffett
Elvis
Armenian
contingency
megawatts
complementary
respective_owners
Middleton
homecoming
snatched
brighter
market_capitalization
Communities
Safe
Extension
Easy
Conrad
convened
warmer
landscaping
McLaughlin
leadoff
Red_Bull
narcotics
Individual
cuisine
WA
disciplines
tender_offer
norms
Ma
weary
sneak
skid
Options
thunderstorms
composite
RBS
Luis
McGrath
distances
there'sa
Kristen
Bowden
Owners
West_Bengal
Eye
informing
Buckley
concluding
circulated
systematic
distinguish
Carney
McDowell
cyclists
simpler
theories
wildfire
media_outlets
staple
thereafter
anchored
Stockholm
Productions
motivate
stunt
racked
rash
greed
professionalism
Colorado_Springs
Lansing
JPMorgan
Santana
Cory
onset
roaming
passive
Britons
perpetrators
rang
MAC
awhile
JP_Morgan
homestand
deportation
clout
Sell
Co._Ltd.
relegated
General_Motors_Corp.
bored
relevance
apartment_complex
picnic
routed
Cedar
snapping
hackers
alien
owing
advocating
figuring
Ethernet
rebellion
inflated
indices
chanting
Legacy
capacities
surpass
Grand_Rapids
revoked
New_Yorkers
TSA
Prairie
McCormick
Added
bred
Finals
anywhere_else
Select
fiery
transcript
religions
refunds
grader
unknown_risks
worsened
whip
Benitez
Le
coincide
stressful
underwear
delete_comments
Standing
Telecommunications
rooted
Consequently
modes
blue_chip
Cathy
vows
Ruby
obstruction
hood
faction
belts
raw_material
Djokovic
adamant
apples
astonishing
spoiled
showcasing
##km
NEC
caregivers
provocative
colonial
Located
Suddenly
suicide_bomber
scrum
substance_abuse
Leigh
Cobb
Chattanooga
Multi
Burgess
search_warrant
Niagara
Modern
diversify
Irvine
dementia
Cliff
descriptions
militias
Letters
inquest
Coastal
escort
Finding
Oaks
runaway
deadlines
glorious
FTC
aspiring
Tacoma
freeway
unfairly
coupon
barrage
competes
Factors
Ethiopian
fared
ass
Sons
Connolly
Vietnam_War
gadgets
abundant
blitz
GOOD
audits
useless
nailed
oversaw
Graves
Gibbons
robber
Imperial
culinary
mutual_fund
Southeast_Asia
Dallas_Cowboys
Haas
Centennial
Prize
Atkins
perceptions
Motor
Prague
directory
workflow
Match
alliances
safeguards
Kramer
Trenton
injustice
affluent
creators
obscure
ETF
Slovenia
Bosnia
landlords
Into
forwarded
deteriorated
conceived
#:##_AM_ET
examines
dash
Rise
Kidd
staring
Pan
Cutler
active_duty
Enjoy
Garner
Regina
irregularities
foe
silicon
atomic
Interestingly
erected
COO
commemorate
canvas
Planning_Commission
stem_cells
outspoken
renovated
toes
Bonnie
footing
Freddie
FOR
Ground
###.###.####
Carnival
booths
dictator
UP
Calvin
upfront
jerseys
groceries
sadness
Bright
nominate
socks
hesitate
creek
Employers
Pakistanis
restriction
PDP
Luxembourg
seldom
knowledgeable
shark
contained_herein
masks
Strickland
bloodshed
Yankee
prejudice
unstable
anytime_soon
breakout
gross_margin
Meredith
jungle
proclaimed
MOSCOW
splash
PhD
forecasters
SOA
voltage
steroid
noticeable
backwards
continents
renamed
bury
dances
salary_cap
Pick
outset
nutritional
CBC
pharmaceuticals
internally
Volvo
refinance
audition
lodging
Christmas_Eve
possessing
brake
PBS
reluctance
counselors
hangs
icons
Blog
Erik
waist
Wave
Ole_Miss
paragraph
concede
prayed
objection
explores
Acquisition
Nigerians
sizable
Wake
Ben_Bernanke
dumb
piles
Wolfe
Actual_results
beam
condemnation
Desert
junta
logs
bolstered
Governments
danced
Crude_oil
repaid
Kaplan
Elite
sadly
tucked
fifty
batting_.###
boxer
residences
lauded
downloading
disqualified
Expect
retiree
o'clock
Rowe
fringe
San_Bernardino
SEATTLE
pharmacies
Offers
Investor
assistant_professor
Callahan
putts
implicated
memoir
enhances
Chapel
honey
homosexuality
boutique
advocated
Marin
comics
Dark
explicit
lazy
BAGHDAD
linebackers
desperation
Chip
fading
impairment
memorabilia
Atkinson
specially
discomfort
fugitive
cups
shooters
snaps
Kelsey
underlined
telecoms
hobby
sings
confession
persist
Levin
emerges
Zimmerman
entertained
lured
feasible
arresting
stricken
Renaissance
Crowley
reaffirmed
reversing
Unity
cousins
peacekeepers
Borders
zinc
sectional
Robbie
RB
pneumonia
maneuver
god
molecules
Beauty
syndrome
DALLAS
ignorance
assemble
#/##/##
Panasonic
Fun
Electronics
Depending
tearing
ASEAN
Murdoch
impeachment
Churchill
e_mailed
Bali
electronically
erase
obey
texting
provisional
Keane
restricting
thief
Macquarie
readily
oven
cocktail
Realty
disadvantage
biography
ritual
spree
synthetic
nursery
WR
trek
filters
Beverly_Hills
reasoning
revolt
Facility
Communist
bundled
Rollins
grill
Charity
roadside_bomb
boosts
lung
poorer
depleted
Sonoma
abruptly
vouchers
congratulated
foam
Reliance
avert
harmed
Geoff
Ibrahim
pins
awaited
modernization
Broad
Jul
McKinney
center_fielder
Durban
England_Patriots
Serena
Jordanian
Scientific
nonprofit_organization
Kemp
Pepsi
impasse
###s
sped
inland
treasure
Darwin
Forces
bend
Reeves
disclosures
convenience_store
Wu
Ashland
weakest
caretaker
touch_screen
Names
polite
carnival
rob
securities_laws
inconvenience
Included
departing
escalated
bogeys
Concert
underscores
rats
Middle_Eastern
conspiring
Derrick
Zambia
Joe_Biden
Known
-#.##
Anfield
PT
traction
armed_robbery
Alex_Rodriguez
Anglo
ouster
ironic
standing_ovation
Holden
sexual_orientation
torch
soar
procession
Townsend
administer
Cullen
opting
scratched
fractured
plastics
outbreaks
preschool
R###
Exeter
Whitman
rip
Oprah
brawl
PSP
IM
champagne
FedEx
makeshift
propelled
brigade
Province
abusing
Academic
bombed
supplements
criminal_justice
Miranda
Citing
Noah
NAACP
confronting
crowned
OTTAWA
Reese
Server
compensated
mayors
Boise
Storage
Resolution
patriotic
terminate
Erickson
Levine
implies
wide_ranging
resumption
Baton_Rouge
makeover
double_digits
Robbins
vein
Fighting
intraday
British_Airways
Giles
Artists
Vince
lion
hey
altercation
dealerships
Breakfast
mins
Consolidated
El
Celebration
Al_Gore
motives
Bachelor
bundle
bogus
Sounds
litter
seas
Owls
Middletown
drug_trafficking
despair
outcry
yarder
Pacquiao
PRN
illustrates
capitalism
sourcing
bumped
inexperienced
Zhang
frontier
Havana
AHL
Images
PLC
fifteen
dwindling
illustrated
deposited
diary
Councillor
R##
tear_gas
Lucky
Salisbury
Jeter
robbers
rigs
release_contains
Twilight
stabilizing
explicitly
Paramount
Leafs
##p
fumbled
Ipswich
MIT
prospectus
Frenchman
sting
Maj.
Vaughn
missile_defense
###.###
standardized
cloud_computing
reap
manipulation
ITV
MUMBAI
Los_Angeles_Dodgers
Armed_Forces
gatherings
slips
baggage
Viacom
sunk
cheek
fences
LLP
Kumar
Monterey
arraignment
embarked
McKay
Carlton
spying
Hell
intensive_care
Ashton
Chilean
GCC
Issues
KU
kilograms
arrest_warrant
Lou
knockout
Auction
Canon
private_placement
emphasizes
briefs
Charges
jockey
regulating
hallway
inject
gentleman
Troops
Bloomington
Launch
cartel
Cameroon
conserve
Northampton
airs
richer
bachelor_degree
prosecuting
porch
Transit
icy
fisheries
tiebreaker
Fine
Rossi
Gaddafi
NPR
pundits
Civic
scalable
Weir
seriousness
Reader_comments
Goodwin
vacations
Knowing
variation
pleas
Calling
Gonzaga
Nazis
ashamed
rubbish
clinching
Gainesville
Crew
Tea_Party
TradingMarkets
tilt
Britney
invaded
elevator
Adult
roofs
Durant
Met
vet
Ballard
mg
Candidates
Soul
disturbed
Noel
IS
undecided
depart
civilization
Chang
interoperability
plaque
JR
emphasizing
Write
subscriptions
tempted
Warwick
bribes
Tara
Cities
GSM
payout
prosperous
Ramadan
exporting
Walmart
Coke
teaming
refugee
counters
showcased
NO
Crane
waivers
sectarian
Hugh
Mississippi_River
Mitch
geography
Ride
earthquakes
tremendously
censorship
farmland
fairway
Toronto_Stock_Exchange
Avon
biofuels
severance
stature
sexuality
vault
Cummings
affection
frightened
Hungarian
suites
stemmed
Inflation
Gophers
feud
Romanian
renting
legends
sustaining
blunt
tiger
Ruiz
Lamar
misuse
hears
Mourinho
fearful
inspector_general
Uzbekistan
Projects
SAN_DIEGO
critically
legislative_session
strikers
Indian_Ocean
intimidated
judgments
modeled
drowning
reclaim
Byron
quartet
sin
menus
lobbied
unused
discouraged
spans
dimensions
Hospitals
perennial
Fort_Lauderdale
Stanton
insects
perspectives
MSNBC
cannabis
UM
Superior_Court_Judge
sorted
escalation
intimidating
obsession
Suu_Kyi
popping
Pak
FSA
interventions
tabloid
Cain
Eden
snack
recovers
Bancorp
succeeds
mineralization
candles
Clerk
Teresa
Malik
Wembley
Agent
harness
openness
fraternity
Bethlehem
Break
offended
inflammatory
printers
Retailers
gameplay
Pearce
Peoria
unreasonable
utterly
Z
allowances
deepening
Madison_Square_Garden
Slater
Superior
dams
compelled
tornadoes
developmental
Federal_Reserve_Chairman
Shapiro
circulating
scales
wildfires
Alzheimer_disease
published_broadcast_rewritten
Prince_William
fours
rests
geared
Sergeant
delete
Kirby
exhibitors
provoked
separating
suicide_bombers
screamed
Holloway
Westbrook
Stand
David_Beckham
lag
Hand
Castillo
adequacy
bachelor
vacancies
recess
Treatment
customary
punching
observer
Groups
Boxing
Relief
exemptions
authenticity
cheapest
videotape
observing
validation
Interested
Qwest
#.#m
Allied
OEM
DS
guilty_plea
adjourned
Section_##E
Pasadena
Hoover
dictatorship
Sampson
mailing
surgeons
Minn.
invention
Date
wild_pitch
biased
outlining
automobiles
chess
Futures
stricter
interpret
sour
towel
intuitive
accessory
tasting
spine
muster
assaulting
dining_room
###th_anniversary
gestures
Personally
leftist
Reach
Tier
Pune
prescription_drug
curtain
derail
perfection
greenback
pepper
pubs
Somebody
sunlight
challengers
dubious
Predators
Driving
subprime
Greenberg
texts
----------------------------------------------------------
Eastern_Time
Glendale
overcoming
workload
expiration
republic
repairing
witnessing
Ford_Motor_Co.
Donations
parenting
boil
McGuire
revamp
convergence
textbooks
warranted
invade
expressions
tasked
am_EDT
Stokes
Schroeder
endurance
lockout
gold_medals
Barr
widen
Belgrade
matchups
embark
seasonally_adjusted
ballet
shout
poem
hid
educator
domination
applaud
URL
bricks
meth
ore
Winner
align
burgeoning
valuations
obliged
decree
Holder
eyeing
Flowers
waits
Guests
Sarasota
equals
Rovers
chassis
explode
Emmy
replacements
customer_satisfaction
flats
descended
constituencies
Chance
Kuala_Lumpur
Purchase
Hasan
containment
incumbents
ringing
televisions
accusation
Rutherford
horsepower
frantic
modestly
earnest
proponents
Md.
sophomores
deduction
elementary_schools
Please_note
jails
cutbacks
Giant
Star_Wars
Irwin
handsome
Gamble
beers
diploma
doctrine
routing
cash_flows
periodically
cornerstone
pertaining
resilience
publicist
dull
Stark
Medal
O'Reilly
Petraeus
Monica
validity
depths
signings
Brett_Favre
Amnesty_International
shrine
Winchester
Beijing_Olympics
marching
Exhibition
predecessors
Santa_Fe
Shot
bruises
Sierra_Leone
Carmel
onslaught
intermission
redistribution
Loan
Farms
MDC
Surely
resurgence
wrestler
OU
devote
roadside
Sharapova
arrivals
Symantec
bombers
helmets
Cherokee
flame
President_Mahmoud_Ahmadinejad
depicted
rulers
snake
SM
herd
Academy_Award
Avalanche
influenza
retract
tipping
promoters
PCB
Waterloo
arsenal
onstage
jeopardize
manpower
spells
V.
Bravo
Mogadishu
Dartmouth
Gazprom
vacated
Mosley
Frances
President_Nicolas_Sarkozy
Bridges
lodge
Browne
shortcomings
Hague
Hamlin
Duluth
wrongly
debuts
Okay
CP
Step
rationale
Seminoles
stabilized
Rex
compounded
cruising
Clifford
Glover
Judges
Summers
Jimenez
SUVs
nutrients
footwear
Khartoum
buildup
dentist
joking
markers
antenna
substantive
Falcon
Huntsville
courageous
Virtual
Generally
Stein
Uttar_Pradesh
INDIANAPOLIS
Federal_Aviation_Administration
roommate
terrified
Interim
mediocre
taxed
UEFA
Presidents
consoles
clad
Jupiter
Redmond
Port_au_Prince
Train
mosques
uranium_enrichment
Tallahassee
clarified
International_Atomic_Energy
##-###
comment_violates
Health_Organization
Census_Bureau
knowingly
vigorous
CO2
coastline
inhabitants
unfamiliar
fanned
respiratory
exclusion
President_Hamid_Karzai
banged
viral
milestones
humidity
render
Medina
pinpoint
abandoning
warmth
shrugged
Beer
Barron
stirring
tightly
pleading_guilty
offending
Quincy
aiding
>>
borne
Saleh
Cannes
Mar.
Rubin
volley
unlock
foolish
Sinclair
presenter
Laurie
flush
Herman
Sixty
gunned_down
Plc
shortened
Cool
ambush
turbulent
Botswana
buddies
Picture
fictional
Proposition
softer
Garnett
counterfeit
Briggs
hijacked
Sheen
Audi
Governors
sterling
whales
Najaf
adversity
static
addicted
pulse
FSU
lefty
deflation
fist
undermining
swimmer
stalemate
Ga.
Latest
outperform
strings
plead_guilty
Assistance
poison
centric
circular
£_#.#m
mathematics
integrates
Beautiful
Listen
Boss
Resorts
Rose_Bowl
Same
Big_Brother
Newsday
lid
Govt
Monmouth
haunted
scoop
NGO
RF
amassed
Elaine
Tan
Fort_Wayne
synergies
Gail
upwards
Watching
divisive
Corner
budgeted
crippled
Contest
ambassadors
Above
bailed
lashed
Les
flourish
natural_disasters
guarded
overthrow
consolidating
diminish
balloons
worsen
queries
rogue
Koreans
mistaken
rep
Must
John_F._Kennedy
ideals
insane
Dow_Jones_Industrial_Average
Guillen
Established
lip
SS
Drop
prominence
Ponting
Calderon
aforementioned
SP
tumble
Atlantic_Coast
Hershey
McDermott
Cork
correspondence
brewing
Cpl
collapsing
marginally
ministerial
punishing
prior_written_consent
stalls
PO_Box
executions
Felix
wastewater
Counties
butterfly
Artist
Funeral
Becky
FY##
Spending
Goa
jackets
laborers
debacle
Gerry
uniquely
handheld
polished
McCann
redistributed
Northeastern
Makes
pegged
Prep
bedrooms
O'Connell
Hubbard
miner
Italians
magnetic
discontinued_operations
attach
referral
sex_offenders
Koch
Athletic_Conference
Doing
regulars
Harrisburg
AB
Archbishop
Kyrgyzstan
submarine
manipulated
Kris
issuer
Active
intervened
Dhaka
exited
oust
disruptive
commencement
performance_enhancing
ATP
parental
imagery
crap
Dragon
Finley
ruins
Salazar
reacting
elders
Engineer
Provincial
guarding
taxes_suitable
comic_book
constituted
bin
insistence
financials
Fifteen
NEW_ORLEANS
bumper
insulin
Gone
strikeout
youthful
weddings
Educational
antique
mentoring
motto
overlooking
alignment
Strauss
Baird
Subscribe
Facing
versatility
Alison
Fleet
niece
counterterrorism
Lion
Lakeland
gravel
Timberwolves
domestically
breeze
Seeing
vigilant
Cotton
gut
constructing
acid
auctioned
Lin
plunging
Neighborhood
preliminary_hearing
systemic
analytical
rotating
MLB.com
declares
Leach
Blackpool
Notice
evidenced
swimming_pool
balcony
cartoons
Hospice
login
Asset_Management
criticisms
buoyed
thigh
Bloom
Updated
Hi
width
sunset
Ulster
rupee
Namibia
Alert
NEW
Legend
instituted
#,#
wrecked
contemplated
knives
Coordinator
daring
mistakenly
multitude
DOT
swallow
SAS
Knowledge
mentions
Gandhi
condolences
HS
hesitant
Gamecocks
Believe
Prime
Edgar
entrepreneurial
Iron
beneficiary
eighth_grade
illicit
Broadband
cloth
meaningless
backed_securities
Utilities
de_facto
Hotels
ripe
Gunners
lamented
tankers
Patton
jammed
devil
aggravated_assault
weighted
Meadows
nuisance
suspensions
###.##_yen
Scots
rendering
offline
Kirkuk
gunpoint
FIA
reside
fledgling
Horizon
insulation
Formula
feast
regulatory_approval
Tata
asphalt
sleek
pasta
escaping
beleaguered
Information_Technology
Including
Doherty
slaves
coping
Highlands
Planet
shiny
per_annum
Kitchen
grenade
occupying
spiked
midweek
Shooting
peaks
Efforts
Hurley
simplicity
Beckett
Ind.
Nursing
rethink
prepaid
Chef
outsiders
cardiac
inaugurated
Pink
override
heavy_rains
Dakota
Grey
Sixth
Overseas
Cadillac
dispose
spawned
Tsvangirai
vulnerabilities
quitting
refrigerator
Crescent
storing
Mercedes_Benz
withholding
empowerment
Fiscal
Allegheny
Costs
activate
glamorous
heroic
fulfillment
interpreter
ER
Guantanamo_Bay
coffers
UNICEF
homosexual
PAC
Melanie
tailor
reps
Organisation
Morrow
Famer
spelled
Army_Corps
DeLay
glamor
slave
attribute
Prof.
infusion
supreme
Haynes
profit_margins
modification
pageant
Ann_Arbor
watershed
UPA
collaborating
Ticket
whale
Sister
emission
compulsory
Goldberg
solicit
Sharif
kidding
PHOENIX
Melvin
simultaneous
belly
Al_Jazeera
dent
Hewlett_Packard
clocked
Labour_Party
vicinity
desires
slam
Emanuel
Aging
South_Africans
aesthetic
holed
Hanna
stabilization
busted
Fan
Cell
Appalachian
strapped
lent
robbing
lavish
toilets
veterinarian
San_Francisco_Giants
Ankara
tumbling
tractor
Rates
spearheaded
stocked
Written
Designed
champs
umpires
backstage
drank
controlled_substance
MP3
prevalence
compliment
handicap
Author
hygiene
w
vain
bowls
Kristin
Guerrero
Fitzpatrick
Millennium
Batman
astronaut
selfish
Clifton
slogans
Historical_Society
Rasmussen
##M
Greensboro
forgiveness
KC
Staples
Terminal
LONDON_Reuters
begging
burglaries
disorderly_conduct
taxing
chanted
Africans
fewest
wisely
BHP_Billiton
appraisal
straw
Academy_Awards
Armed
Tribe
tossing
galleries
Pretty
Treasuries
seat_belt
Seymour
canceling
Lt._Col.
PITTSBURGH
subpoena
entrants
crane
Stories
Wal_Mart_Stores
hunter
Protesters
Miami_Dade
Clement
Truck
Carrie
Miami_Heat
NRL
Minor
Certified
capping
Opens
Cuomo
Connie
Daily_Telegraph
defunct
Increase
Legion
Isaac
historians
Peninsula
Streets
ambulances
DuPont
Liam
Sheila
CMS
##-##-##
tattoo
scream
assert
Peggy
firsthand
divers
Abuja
Interior_Minister
scenic
ISLAMABAD
inputs
Murder
pm_EST
somewhere_else
Galveston
raft
carbon_emissions
##K
Pryor
billboards
shells
Abbey
outburst
Barry_Bonds
Published
sacrificed
Platinum
Flagrant
Philadelphia_Phillies
##pm
~
Hawaiian
Prudential
reconcile
Erdogan
unlucky
unrealistic
Treasury_note
extortion
biodiesel
unfavorable
wildly
raging
Ericsson
positives
Aboriginal
Built
nursing_homes
Billings
Caterpillar
repeat_violators
Hillsborough
responders
Sutherland
UA
intensify
Beasley
Benefits
Nigel
Monster
Keys
EST
lbs
Warner_Bros.
profanity
longevity
Isle
citations
###M
forestry
Touch
downward
upload
Perfect
noble
Postal_Service
Kindle
Ranger
Berg
Tom_Brady
seamlessly
Pavilion
Dane
Selling
Macau
endeavors
Drugs
malware
bush
reflective
ubiquitous
Healthy
defects
specials
SF
Forrest
Build
ecological
kidnappers
Kellogg
accolades
intentional
portraits
lopsided
bulls
NH
angles
Mental_Health
atrocities
crossbar
gossip
telecast
outer
invests
bagged
curator
somebody_else
showcases
Guest
enjoyment
avail
contemplating
flaw
shadows
Mind
user_click
Assets
vaccination
exits
Russ
Hoosiers
exaggerated
swearing
Fallon
Pilot
objectionable_comment
Qualcomm
Assad
tunnels
trucking
Greenwich
Remember_comment_moderation
Ahmad
Illini
reader_interaction_discussion
weed
dinners
use_profanities_vulgarities
SB
guidelines_click
prized
paste_outside
massage
Titan
moderator_review
Braun
mayoral
Sentinel
slope
WiMAX
standby
tailback
borrowing_costs
containing_inappropriate_links_obscenities
surround
Deputy_Prime_Minister
delete_inappropriate_comments
Rail
strategically
Dickinson
surpassing
disturbance
nails
Ike
American_Cancer_Society
material_objectionable
Ash
Superman
diameter
choked
MINNEAPOLIS
differentiate
forfeit
wolves
Concerns
Prof
forty
pardon
FY
Sloan
defiance
strengthens
Crime_Stoppers
committed_suicide
Potential
CFL
Lima
packet
Tide
botched
phased
melt
Activities
haven
Turns
ribs
Prime_Minister_Tony_Blair
Pioneers
Pamela
vans
turbines
Beaver
sanction
mornings
Image
praising
folded
Finn
conductor
Marilyn
colony
chill
Assam
quirky
allotted
CNBC
contestant
Gbagbo
Larsen
Coaches
Rafael_Nadal
deepest
curiosity
President_Mahmoud_Abbas
Gate
Trying
Phil_Mickelson
assortment
National_Institutes
southbound
evaluations
divert
dime
penned
brokered
Business_Wire
blogging
urine
badge
ineligible
husbands
Wes
cozy
diversion
administrative_expenses
layoff
Paradise
snapshot
Halliburton
Tea
negotiator
Humanity
socially
dense
concentrations
Range
skiers
Extra
Points
knee_surgery
Bethel
paycheck
guerrillas
nude
mechanic
Swansea
Stakes
prince
API
Bellevue
Traditional
Westchester
Costello
pediatric
Alfred
harvested
Classes
Chico
Clare
Poker
soda
Allah
Howe
tabled
safe_harbor_provisions
Suzanne
engulfed
Childress
rentals
Tomlinson
Srinagar
malls
discretionary
manipulate
Bearcats
cockpit
cleric
RV
Midway
l
orchestrated
Rihanna
strips
wartime
TJ
refreshments
separatist
sandwiches
fend
booed
Amtrak
Hatch
bakery
VMware
Dee
doubted
Relay
Burnley
facilitating
dividing
striving
slack
edging
Downs
acoustic
privately_owned
pullback
marketer
watchers
Crash
racers
www.zawya.com
LAS_VEGAS
rounder
MasterCard
Trailing
Francisco
sword
browsing
Harare
Stacy
AARP
economical
slugger
extras
reopening
lessen
Harlem
converged
Patriot
groove
redundant
elephants
weights
rescheduled
devised
Conditions
closely_watched
Jarvis
confidentiality
Warsaw
importing
abstract
Andhra_Pradesh
colt
Jamaican
eco
Serie
Latinos
#:##.#
Atlanta_Braves
Internet_Explorer
Topeka
liberation
Words
vigorously
discarded
Anonymous
Swanson
inflicted
Lawyer
Mercy
Heavy
Sharma
odor
impacting
allocate
interchange
awake
resides
user_friendly
Advocate
Laws
seizures
Lancashire
locking
corporate_governance
perks
chatting
pains
predators
Ellison
Cornwall
cynical
US_backed
Malawi
depicting
messy
tuned
mitigation
learns
wit
expedition
Wilcox
entitlement
##.##_plus_GST
ancestors
intersections
backhand
Parkinson
rollout
psychiatrist
traits
groom
lays
Wis.
inactive
brunt
molecular
remnants
victorious
marquee
condominium
accommodations
livelihood
Premium
Various
warfare
encompasses
reins
complied
Broward
pop_culture
vastly
eyed
South_Ossetia
restrictive
Section_##A
cries
Flood
#.#bn
Faculty
CB
ALL
Roll
plasma
Gerrard
communal
PS
Animals
Spider_Man
Naturally
Scot
resemble
Climate_Change
northbound
birdied
officiating
Rate
Christensen
O'Malley
Lay
selectors
embassies
parcels
horn
creature
Clyde
cliff
Firefox
paramilitary
biting
query
gutted
evacuees
Regulation
leaf
looting
coffin
Capello
Boston_Celtics
noisy
unfold
prostitutes
fray
Units
shades
thwarted
Hokies
sung
Comedy
Voting
extremism
admiration
needle
Claims
senses
middle_aged
Huff
Executives
arrogant
skated
boasted
Dexter
probing
Padilla
purported
radios
Thrashers
motorist
Evidence
BHP
airwaves
upstream
Fernando
integral
removes
Secret
managerial
insert
iPods
operatives
smashing
flour
pesticides
dissolved
towering
encryption
streamlined
thwart
slows
principally
endorsements
insulting
####m
stark
drifted
lieutenant
heed
Philips
sliced
utilizes
license_plate
Billion
alley
recycle
fingerprints
mobilize
disagreements
Headquarters
caucuses
harmless
amounting
examinations
Enough
hospice
investor_relations
clan
deterrent
condoms
salesman
dispatcher
Bridgeport
Prescott
Lounge
Mohamed
informative
raffle
defied
Pennington
borrowings
chairperson
dogged
urgently
knot
alarmed
pornography
guts
Dallas_Morning_News
ceremonial
Looks
restrained
UEFA_Cup
Issue
disadvantaged
safest
Jarrett
conveyed
hovering
Avatar
Olivia
stirred
detainee
Stacey
search_engines
soybeans
dues
bargains
UNLV
fundraisers
Friend
culprit
Pittsburgh_Steelers
bouts
Barbados
daylight
telephony
derivative
Lisbon
non_governmental
Hampshire
fencing
Kodak
tow
epicenter
Prospect
souls
LB
Pictures
bureaucrats
Bo
births
Lakewood
demographics
awe
revisit
Berger
soaked
min
Developers
mat
diversification
Charlotte_NC
compatibility
#.####_gallon
Steve_Jobs
Statement
Annapolis
Ritchie
chunks
interfering
pledging
erratic
rush_hour
Registered
rink
Palo_Alto
throughput
cautions
limbo
afforded
Hyde
Basin
Individuals
sober
Pedro
charismatic
Kobe
Auditorium
Sands
Nordic
indie
remembering
pleasing
Reader
authored
ii
portrayal
Machine
Outstanding
Bombers
appalling
startling
misguided
looms
Tobacco
Mother_Day
Manufacturers
Winfrey
Factory
Dolan
France_CAC
Scores
Manny
Mel
prohibition
Turks
remanded
AK
Morse
gymnastics
scaling
Darling
JD
drift
al_Maliki
Dyer
procedural
pleading
heats
administrations
replica
Pujols
deaf
presidential_nominee
4A
curse
Landis
cooled
inadvertently
steered
multimillion_dollar
Persian_Gulf
texture
Erica
magnet
foreseeable_future
gritty
mentioning
u
luxurious
Button
Mick
chilly
O'Leary
publicized
transmit
Comment
naive
roadmap
bruising
handcuffed
vigil
Orissa
minivan
dangerously
tempered
Newfoundland
precipitation
spelling
McClatchy_Tribune_Information
gloom
sabotage
Newspapers
distractions
gubernatorial
possesses
parity
exhaust
brisk
believers
Cinema
dignitaries
testifying
Zimbabwean
General_Ban_Ki
defaults
bribe
dismissing
Mitsubishi
arranging
pal
surreal
Featuring
Scottsdale
playback
Vale
rendition
Scholarship
succeeding
Boucher
fully_integrated
Hindi
Pizza
salute
Courts
Californians
explanations
likewise
Producers
leaderboard
plaza
rift
Bull
Moreno
liner
circuits
Kentucky_Derby
closings
Joint_Chiefs
protracted
Riders
Opportunity
poems
miniature
Mavs
grenades
whipped
Blockbuster
sealing
informational_purposes
construed
Gould
hotline
Kagan
Effective
terrifying
Brig
Film_Festival
pianist
IDF
Selig
Sisters
grad
Preliminary
Hebrew
There'sa
Daily_Mail
airspace
flashed
insecurity
harvesting
Amateur
Inspector
Sawyer
jackpot
weeklong
Films
Easton
MT
replicate
bonding
payrolls
deserted
semis
mindful
throne
quotas
Parliamentary
rooting
periodic
Adjusted_EBITDA
Meridian
Windows_Mobile
morality
Gov._Arnold_Schwarzenegger
pirate
San_Juan
CJ
ego
embargo
CES
depot
accessibility
Monitor
culmination
possessed
insure
recounted
Terrace
mantra
attain
shining
arbitrary
Deloitte
Nottingham
News_Alert
imply
Gloria
ages_#-##
veterinary
Peshawar
guru
traveler
hugged
sex_couples
Chemical
X_Factor
sex_offender
exploits
#:##-#:##_pm
ashes
staffer
Vols
Unemployment
hoops
painter
elect_Barack_Obama
chartered
upped
greatness
saddened
appointing
spurt
summed
Johns
chin
gem
acknowledgment
freak
ISO
LOUIS
forbidden
Riyadh
Elliot
Ethics
loudly
renovate
Class_B
longstanding
unconventional
derailed
toast
hassle
coincided
clarification
Rajasthan
solo_homer
Parking
Taser
SaaS
Pawlenty
browse
EP
Cooke
MR
Sonics
Gain
mired
volcano
Specialist
fund_raiser
Gospel
communicated
favoring
prohibiting
extinction
lookout
arthritis
tasty
McCartney
Hello
resisting
Jen
Patent
Zelaya
Increased
discs
Michael_Vick
endowment
biopharmaceutical
garner
***
Walking
roses
customize
specification
grievances
recognizable
seismic
eco_friendly
baht
Sebastian
bowed
7pm
Lenovo
Mayweather
foray
meteorologist
composure
sync
Putting
Roads
Pretoria
air_pollution
Items
Lara
dashed
Giffords
resellers
geographical
convene
Kohl
excel
correlation
GT
overseen
apprehended
Maritime
ducks
unlocked
unfinished
Portfolio
et
G8
logistical
textbook
Catch
contending
Mexicans
storey
BCCI
detonated
Twin_Cities
footballer
Humphrey
Poole
Internal_Revenue_Service
Vanessa
Heaven
beforehand
Theresa
Bowling_Green
Credit_Union
compassionate
guerrilla
preventive
puppy
warmed
trout
8pm
duplicate
hamstring_injury
Secondly
vegetation
Kilpatrick
Specter
Celebrity
Retired
backpack
gymnasium
adjoining
bracing
EADS
newborn
Managers
Passengers
dismantle
Alexis
locker
expansive
punk
Buddy
outage
tampering
backfield
hers
Minnesota_Twins
hop
Tulane
Pope_Benedict_XVI
Wallabies
Jenna
eats
San
Kaiser
Natural_gas
Korean_War
sculptures
crippling
Coliseum
Kill
infringement
bailouts
ING
swollen
metric_tons
Rainbow
probes
beast
Levi
Understanding
newsroom
Lunch
Response
Salinas
kindness
empowered
Olympia
Maoist
juveniles
Walt_Disney
seizing
Connection
sparks
CPR
junction
New_Yorker
self_esteem
Gillespie
pathetic
quell
Peterborough
temptation
Hodgson
harassed
rampage
antics
CIO
basin
Create
Binghamton
characteristic
WNBA
angel
masked
CLEVELAND
upstate
precinct
Shows
Garland
capsule
Montoya
timer
amidst
patriotism
Tobago
mattered
Shea
establishes
Profile_Research
Vance
DNR
buckets
jaw
notebooks
Hands
repercussions
limbs
date_hereof
OECD
revered
ratification
CO
HTC
swam
Colo.
rude
Payton
cheated
tubes
Goodell
scams
appreciates
Schedule
Sheehan
abnormal
Fri
impetus
resigning
fossil_fuels
suppress
moderators
flawless
SBC
TiVo
topple
Ethan
extraordinarily
villain
halting
hostility
Draft
announcer
Parent
wheel_drive
Bayern
elevation
Decatur
Café
grieving
corridors
trendy
Pet
Testing
Agents
Dominic
avenue
outages
coal_fired
manageable
bottled_water
disappoint
waged
Latvia
bumps
Continuing
friction
Amherst
Clarence
McAfee
Middlesex
shedding
heel
perjury
Alpha
wrestle
Boehner
misled
Atlantis
Petersen
exploiting
Chatham
lumber
Generation
bathrooms
Features
blade
Wilkins
scans
Salt_Lake
Wait
brilliantly
reacts
nicknamed
Westfield
civil_servants
modular
Residential
storytelling
Gun
crawl
rehearsal
quickest
hails
cancellations
creations
snowfall
hedging
recruiters
deepen
Dwight
storyline
worm
Hero
Greer
Jasper
Helena
partying
Colonel
ethnicity
weeds
trajectory
incur
disappearing
levee
recoup
prestige
JERUSALEM
suspending
isolate
Wire
Hawk
ERP
Cyber
Head_Coach
Sheldon
slayings
mosquitoes
Michaels
scripts
swear
Landry
researched
madness
Manor
seals
designate
Bing
Diabetes
Barca
getaway
Interview
Sorenstam
conform
outsourced
summers
nonprofits
paid_tribute
Advance
CPA
Saturn
prom
deeds
Cahill
billboard
hybrids
GAO
4G
remedies
Blackwater
dude
blasting
Lot
outsider
pro_democracy
dazzling
crossover
Leno
foregoing
Fidelity
netting
screenplay
pioneered
Egyptians
Engine
Logistics
sexually_assaulted
staffed
Harbour
Rotary
Advocates
Lubbock
Oz
liquidation
pavilion
passer
translator
ramifications
devotion
wandering
Heidi
nowadays
Goldstein
oceans
mascot
benches
Election_Commission
Workshop
genres
Bengal
Bashir
leveraged
penetrate
Paris_Hilton
Jurors
locating
honorary
airborne
Whoever
unmatched
piling
humiliation
Rockford
CHP
Chechnya
Veterans_Affairs
suck
cosmetics
escalate
skirt
copied
competence
valve
upsets
Insight
mourners
vaccinated
STAR
symposium
taller
sweeps
Spokesman
nationalist
taxable
TI
discourse
teamwork
Legislative
Borough
upright
unfolding
brightest
fisherman
queue
Losing
heartbreaking
manned
Tillman
Circuit_Judge
Kayla
#Q##
impressions
logos
amusing
sprayed
pessimistic
Foreign_Relations
rigid
Thankfully
swell
Niger
postings
IU
acreage
collaborated
waking
dominates
Trooper
disregard
Rove
chapel
3M
user_interface
Briton
Wayne_Rooney
Mazda
upsetting
unhealthy
Jeep
Debra
fellowship
disgruntled
hay
Romo
Winston
IPTV
grapes
wording
wholly
Santa_Claus
McPherson
merging
Independence_Day
authentication
Vehicle
citation
Lady_Gaga
Tebow
reproductive
lecturer
apartheid
calmly
sequences
DHS
shutouts
bees
uneasy
crystal
hauling
planets
SBA
helpless
balance_sheets
Hines
FBI_agents
Alcohol
Bean
Higher_Education
Marco
dedicate
discontinued
PGA_Championship
Clarkson
Journalists
assassinated
obligated
senate
arises
clears
Seventh
mentors
continental
honeymoon
Sunset
Newspaper
fertility
teachings
grinding
CU
deficiencies
Lithuania
Terror
Kathryn
squandered
coma
betrayed
overtake
Canal
merchandising
Sunrise
Hartley
rigged
circumstance
Kiwi
Ajax
Webcast
pretending
Starr
offensive_lineman
Rowland
TNA
Exclusive
temper
ROI
Simple
PDF
Darrell
waive
MC
grass_roots
blended
Wyatt
Satellite
Adjusted
overlook
Collingwood
joint_ventures
numbered
Analysts_polled
Pharmacy
Jet
flashing
Belichick
rodeo
traumatic
leukemia
airstrikes
uncover
servant
McNair
activism
Phase_II
Judith
invitations
fixes
Babcock
smoked
McFadden
fetch
materialize
cheat
ailments
Rio_de_Janeiro
Connect
weekdays
collar
intercept
Fear
Tasmania
IL
Alternative
Quest
endorsing
ripping
finishers
Lutheran
Triangle
Audio
Lockheed_Martin
Popular
grains
Jays
beard
sorting
Cold
cylinder
Anybody
waning
Loans
defect
Telephone
convict
BERLIN
bpd
Joanne
##.##am
weekday
suicide_bombings
nominal
ecstatic
shocks
protestors
Cover
hacking
Novak
reinsurance
cooks
Chapel_Hill
Marseille
exemplary
Russo
armor
avalanche
Archer
Wie
feet_tall
resentment
migrate
concealed
filtering
Schilling
Opel
#/##/####
Bradshaw
Blue_Cross
redeem
regimes
Takes
Referring
stereo
drying
Answer
Crude
Mbeki
depressing
dissidents
athleticism
earmarks
warrior
P##
registered_trademark
prowess
moving_averages
monkey
Shadow
pragmatic
Serena_Williams
Shanahan
Los_Angeles_Angels
disposed
Benefit
Trustee
Flanagan
perceive
MCI
Tools
Adults
hinder
flair
filly
Getty_Images
patron
ordinances
fast_paced
Turning
Maui
WSU
mismanagement
discriminatory
Ultimate
plumbing
cash_strapped
toughness
Beacon
solar_panels
fatally_shot
provoke
eroded
wrestled
unveils
Editorial
cruelty
muted
Strategies
compression
bicycles
Dion
redesigned
Associate
RHP
parking_lots
inundated
writings
extracted
iPhones
kissing
vivid
interfaces
Division_III
teleconference
Yao
Michele
altering
defiant
Filipinos
Evening
Adds
groundwork
airlifted
desks
modernize
Clijsters
Cassidy
plague
Terri
manually
Attack
Organizations
Congratulations
Shaquille_O'Neal
Miami_Herald
stitches
resembles
Decker
Bernstein
Figures
condemning
spills
TNT
dismantling
simplified
Golden_Eagles
Florida_Marlins
frustrations
MarketWatch
Hutchison
outshot
Victims
extraction
borrower
Orchestra
Hearing
sphere
Coughlin
sunglasses
Peak
traps
levees
clusters
Playboy
crumbling
shoreline
propel
varies
Minnesota_Vikings
Burris
Jaguar
Odom
X_rays
nightly
Stephenson
Inter_Milan
Paraguay
canned
slopes
ignorant
calculating
deception
Greenpeace
Pena
Ames
West_Side
emulate
Brook
civil_liberties
Plenty
Parts
accumulation
nest
qualifies
tweets
visionary
footed
thugs
chants
tick
pat
baked
biomass
Tens
Craft
Moroccan
racer
hamper
f
Southeast_Asian
departures
fashionable
Assessment
Emerging
Apr.
condos
unsuccessfully
plowed
Figure
unarmed
McClellan
maturing
hopefuls
Loyola
submerged
Frankly
3s
improbable
Grossman
Cooperation
rat
Treaty
Farmington
NDA
Historically
Halo
Granted
voucher
Origin
CW
disbelief
vetoed
Sao_Paulo
Sitting
Nutrition
5pm
culminated
oppression
Organic
misunderstanding
exploding
Bakersfield
hectic
fostering
sparkling
skipping
parishes
Retirement
McKenna
remodeling
combo
Accounting
uproar
Jacobson
adolescents
Developer
succumbed
mouths
windfall
thousand_dollars
tempting
Renee
##pc
graves
campers
Dickson
Meyers
Valerie
wardrobe
scalability
Savings
empowering
Naval
Nowitzki
#:##:##
Woodstock
affordability
Cleveland_Indians
Outdoor
ceased
Forestry
Lindsay_Lohan
deed
tissues
Novell
Abby
McMillan
McNamara
Lehigh
Survivor
3A
Estate
Actress
buyback
shit
pounder
reassuring
Mayfield
Costa
Mattel
disrupting
SWAT
guardian
unsustainable
cottage
wedge
Wen
Brands
Shelley
Original
waterways
Ho
dipping
Senate_Majority_Leader_Harry
knocks
resuming
warehouses
Sir_Alex_Ferguson
NAB
haunt
Vanguard
diarrhea
Golf_Course
doorstep
untouched
Kern
hiatus
sharks
mobilized
P###
informant
wards
arrogance
tax_evasion
scanner
space_shuttle
pathway
CSI
fusion
lifeline
Elgin
screw
quiz
Roanoke
Killed
Galloway
Tough
entrenched
feasibility
greeting
Variety
conceding
Asheville
surcharge
lunches
climbs
Southeastern
unfolded
Chamberlain
Failure
exiting
annoyed
unpleasant
progresses
curling
LPGA
EMI
likened
textiles
Regional_Medical
roadways
limelight
Print
Tyrone
stubborn
materially_different
mankind
App
Expert
endanger
Sessions
Bin_Laden
faults
Alpine
DePaul
darker
roared
Multiple
stagnant
freeing
littered
plugged
disclosing
Stamford
most_populous
Harmon
comparative
essays
U##
finalizing
gadget
tame
Afterward
Rockefeller
bookstore
mediator
Healy
Cho
Rotary_Club
Tammy
Santa_Monica
Adventure
turbulence
articulate
alma_mater
Noon
sucked
sitcom
decorations
€_™_s
Rosenberg
Mo
sketch
Roach
replies
Blackwell
Albion
A##
Britain_FTSE
hotel_rooms
simulated
taps
timeframe
entertainer
fur
singer_songwriter
Him
Rehabilitation
Orr
decidedly
Ritter
Alicia
unilateral
Episcopal_Church
princess
Buzz
forging
unresolved
disgusting
delightful
Public_Relations
Delivery
kidnap
brutality
PKK
issuers
Indianapolis_Colts
Bullock
Angelina_Jolie
Port_Authority
Yellow_Jackets
Pond
noteworthy
Architecture
Estonia
horizontal
offspring
schoolchildren
bln
rock_n_roll
Kid
cubic_meters
guessed
Denny
Brother
tumultuous
Somehow
Examiner
journals
Coun
boon
pale
Flying
U2
doom
gift_cards
storied
Marvel
Pettitte
sexual_harassment
tattoos
disguise
stockpiles
schooling
Mohammad
Rowan
fabrics
Human_Resources
Cllr
ruthless
intimidate
Mendoza
No_Child_Left
Lexus
Locke
Roland
groundwater
Alexandra
Barrow
sleeves
informational
hierarchy
cosmetic
cue
foul_trouble
Uribe
lifestyles
Federal_Emergency_Management
Courier
Cheshire
classmate
Garrison
campaigners
Advisors
medium_sized
Wed
JPMorgan_Chase_&
pervasive
dreaming
hardcore
fest
Star_Trek
severed
Philadelphia_Eagles
uneven
strangled
buffet
Coles
St._Cloud
smuggled
fuss
avid
AIM
commuter
discontent
undervalued
Drilling
Maureen
Whilst
Danville
gloomy
palm
philosophical
Samoa
House_Speaker_Nancy
demeanor
Mountain_View
suicides
auditions
curtail
minimizing
Woodland
entice
breathtaking
steak
Bud
Mickey
Methodist
budgetary
joints
lapse
praises
illusion
quarantine
gigs
grocery_stores
Dempsey
Arenas
touchdown_pass
Saab
peninsula
Integration
#'#
repression
facilitated
quits
Oslo
transfer_window
Underwood
muddy
Paige
govt
variables
Islamists
reset
Mirror
WiFi
LGBT
liking
vest
cache
Booker
finance_ministers
Fewer
pollutants
spikes
doll
novice
stigma
triggers
props
projecting
specialize
Numbers
sideways
rails
disparity
conceal
Chandigarh
Declaration
Thirteen
blackout
tomato
Dam
defamation
skinny
Socialist
duel
FT
retailing
Nicaragua
lamp
digital_cameras
innovator
formulation
fury
MGM
Providing
Tel
heaviest
persecution
USF
funk
melted
rocking
pitted
Fort_Myers
downfall
moderately
menace
contractual
Fidel_Castro
songwriter
stints
Lok_Sabha
windy
Japan_Nikkei
trillion_yen
Miami_Dolphins
Watford
forgiven
Person
Rosen
pesos
championed
Kalamazoo
exacerbated
obscene
disposition
Mitt_Romney
vibe
fracture
trimming
redesign
TARP
garlic
patio
Munster
Ledger
excerpts
selectmen
entrepreneurship
bash
Polls
Covington
Exports
Robert_Mugabe
Beaumont
terminology
Scarborough
foil
presiding
populist
Counsel
Electricity
stern
operative
XI
marina
unearned
Sherwood
La.
risks_uncertainties
DE
No.1
homelessness
therapist
Boro
shrank
Halladay
grading
culprits
Hess
Wellness
clerks
Fenway_Park
Hour
fascinated
Anita
factual
captivity
detrimental
avoids
n_newspaper
intellectual_property_rights
Corbett
Log
ANZ
##.##.##_#:##
castle
populated
separates
Immediately
BS
Myrtle_Beach
Held
coated
jumpers
contesting
complying
McDonnell
endangering
Countrywide
Quite
spat
touting
Administrative
Vioxx
disproportionate
agility
tooth
Wiley
pillars
forehand
Evergreen
thanking
Corzine
reinforces
automate
cookie
Fisheries
battalion
tolls
lunchtime
legality
synonymous
routines
hoax
Ballet
Historical
Sherry
Airline
subsidize
dislike
expulsion
SEO
pinch_hitter
abdomen
#.##m
IC
analysts_polled
filibuster
registrations
miles_southeast
strives
barracks
reservoirs
idiot
More_importantly
embroiled
Hank
wholly_owned
louder
Federal_Communications
humorous
Dreams
Ayers
quipped
assign
monumental
honorable
Ministries
LeBron
President_Vladimir_Putin
###-###-####_ext
Estrada
Firm
distract
melting
disarmament
McIntyre
compiling
Richland
Mahoney
Lt._Gov.
statistic
Defense_Ministry
Ware
Progressive
OTC
Kaufman
horns
coats
NBC_Universal
spacious
barge
activation
homage
Ochoa
Reservations
choking
Denton
Hanoi
Novartis
documentaries
paints
carnage
stainless_steel
y
Compliance
Els
Ogden
Brit
heavyweights
Civic_Center
Fr
depicts
Quarterly
Xerox
cough
Wikipedia
attachment
Aristide
shaft
Sioux_Falls
laced
Kmart
pressuring
forehead
persona
Molina
rocker
conversions
sleeve
landscapes
Al_Qaida
r
buffer
disperse
Loop
American_Civil_Liberties
DSL
puppet
Lim
Harvick
Glee
Broadcast
collisions
Dealers
Cary
Buying
polling_stations
Measure
Financial_Results
stamps
Wolfpack
President_Hu_Jintao
Olympian
Norwood
Brad_Pitt
CM
Razorbacks
lesbians
Skills
Genesis
Star_Tribune
Napa
focal_point
batted_.###
vow
Railroad
reviving
Temperatures
Vicki
mentally_ill
Fountain
defer
Goes
dusty
congratulations
oncology
Southwestern
Light_sweet_crude
bursting
humbled
dreadful
dialing
gown
Cincinnati_Reds
Colleges
Atlas
paramount
disgrace
Fellowship
Ryder
jihad
Garza
Homer
consequently
surrendering
Billboard
swaps
bind
Gilmore
Oval_Office
Evansville
worms
underage
freezer
Houston_Astros
inefficient
Performing_Arts
Colleen
expressly_prohibited_without
token
Hobbs
suicide_bombing
Maori
dough
Nobel_Peace_Prize
Goodyear
packets
ruler
Anytime
Honestly
scooped
Flaherty
gainers
Harmony
envision
CSU
speculators
precious_metals
Album
ominous
breakup
relaxation
Improvement
grin
blessings
listens
auditing
OR
PayPal
mayhem
Builders
algae
bitten
eruption
secretive
Jay_Z
Legends
Sevilla
servicemen
President_Hosni_Mubarak
6pm
Jimmy_Carter
stray
Staff_writer
Rendell
Helping
##.##pm
Fishing
Columbus_Ohio
sticky
dwelling
miles_northwest
CIS
conducive
al_Sadr
Cape_Cod
fond
Talent
Janice
GBP
stem_cell
liquids
mountainous
appreciative
baking
OC
Tips
showroom
jobless_claims
Sofia
Bee
sizeable
renewing
ARM
nonpartisan
echo
scenery
budgeting
DH
Eve
Feldman
Movies
Barak
Andersen
Tours
disarm
Denis
mesh
Stamford_Bridge
Utility
alarms
geological
streamed
Delta_Air_Lines
PepsiCo
Version
co_op
Mon
###K
compilation
Medford
takeoff
Ram
dont
Shenzhen
westbound
Aiken
dome
Oprah_Winfrey
inspires
deductions
annexation
syndicated
ticked
Clinical
passwords
Pharmaceutical
Redding
Strike
com
favorably
##c
salon
cereal
bureaucratic
consulate
greats
Echo
Kahn
relievers
coating
bassist
councilman
forgery
Nikki
......
glow
Lords
g
Modi
fliers
Yellowstone
collective_bargaining
marvelous
John_Boehner
stave_off
hubs
Depreciation
orderly
Harley
Ah
computerized
Pontiac
treasures
Donnelly
constrained
millionaire
settles
Islands
Bar_Association
Different
instincts
spoil
Darlington
standstill
NIS
Maloney
Conner
presumed
dramas
Brunei
Kyoto
socio_economic
Warrior
thereof
shortest
Primary_School
NOW
booster
Regular
Kline
boating
Numerous
repertoire
exhibiting
deteriorate
Fry
pullout
McLeod
roar
Gilani
Orton
mammoth
multilateral
Inspector_General
plead
curbs
Whereas
pioneers
fetus
phoned
playwright
apparatus
securely
risking
JJ
soften
blistering
rifles
booted
CV
espionage
voyage
Serb
landfall
Closing
accumulate
validated
eastbound
gigantic
plc
draft_picks
Turin
splits
Keating
questionnaire
CNW
Hay
social_networking_sites
hacked
Edwin
percentages
autobiography
Challenger
Harvest
Newsweek
endangered_species
O'Sullivan
retrieved
Jeff_Gordon
shaved
west_coast
Mays
President_Hugo_Chavez
Macedonia
oz
Calendar
relied_upon
validate
San_Joaquin
Eclipse
Physicians
Clear
ND
risked
Hodges
Gang
programmed
Regan
Dukes
Papua
Ky.
Geological_Survey
Forecast
diets
Dwyane_Wade
retires
##GB
vets
THIS_IS
collaborations
Chesapeake
Session
felonies
reimburse
Quarterback
Kroger
commissioning
Waterford
pity
scratching
Sacred_Heart
pertinent
CE
faltering
methane
Sindh
meager
visions
copying
levied
Prius
Assange
IPS
Letterman
Kuwaiti
BNP
pillar
chilling
taping
Buenos_Aires
kidnappings
Process
underscore
Apartments
humanitarian_aid
indictments
undertakes
JP
hates
San_Mateo
tendered
REUTERS
Sponsored
tasted
Windows_XP
Rudy
panicked
maximizing
Carmen
fork
nationality
Tenn.
syndicate
Bringing
reimbursed
medical_examiner
Agassi
Toronto_Blue_Jays
sickened
postponement
Croatian
Emery
Bayern_Munich
fumbles
Mustang
Or_maybe
Sprint_Cup
Michel
Buccaneers
bronze_medal
twists
randomly
rewrite
Tendulkar
bondholders
flashes
newly_formed
authorizing
Option
constitutional_amendment
Prime_Minister_Ehud_Olmert
horrendous
Senegal
Maple
BAGHDAD_Iraq
newly_elected
upheaval
Cecil
configurations
greedy
Craigslist
Called
curbing
ACS
clinging
enrich
compensation_expense
durability
spiraling
stereotypes
spanned
ODI
injections
shelling
cyclist
medieval
Gerard
snakes
preaching
vowing
kinda
Jessie
Releases
eur
dismantled
Incorporated
trickle
screams
blood_sugar
spice
aids
rights_reserved
PE
Windows_Vista
racetrack
IR
groin_injury
Regents
clientele
popcorn
Desk
Ferry
smugglers
backups
Sylvia
withhold
prostitute
dictated
Robert_Gibbs
########
envy
Journey
Luna
rained
combating
moderates
rub
herbs
##bn
immigration_reform
flowed
pilgrimage
McGill
Massa
torque
Metal
feasibility_study
Normal
Sheppard
Sotomayor
Corpus_Christi
induction
allergies
east_coast
energized
multibillion_dollar
dysfunctional
WAC
tropical_storm
Night_Live
Yushchenko
statutes
actresses
Bolt
El_Salvador
Roman_Catholic
downstairs
pristine
posture
Viagra
stripping
Proctor
respite
Gwinnett
Villarreal
Opportunities
rejoin
Parrish
relocating
petty
Lights
Chicago_Bulls
worrisome
Liberal_Democrats
oils
Fullerton
cruiser
Countries
hormones
Bundesliga
Color
jealous
Viking
buzzing
Transportation_Safety
downplayed
designated_hitter
UI
Hwy
Roundup
Bosh
Diluted
inflows
MSN
Universities
Peyton_Manning
Charge
furnishings
lawful
Yellow
drifting
Stratford
foresee
imbalance
Sophie
commanded
turbine
troublesome
Advantage
pals
podcast
drunken
BJ
Secret_Service
Travelers
DOE
Taxpayers
ISU
Baltimore_Orioles
Fly
tweet
Gulf_War
stimulating
Gingrich
Taste
EMEA
instructional
invalid
culminating
measurable
gentlemen
IPOs
Saudis
Prime_Minister_Stephen_Harper
flank
Mindanao
Zack
radically
courtyard
internationals
bacon
shameful
facial
fatality
Santa_Rosa
divine
Delgado
comrades
stroll
flare
ramps
stalking
Pier
Posada
Appleton
incorrectly
XML
systematically
roaring
Eriksson
lieutenant_governor
Hawkeyes
standalone
Sunni_Arab
Ricardo
underestimated
landmarks
Copeland
Bowers
Definitely
Jamestown
marrying
Buddhist
Haryana
Towers
&_P
Mines
regeneration
centimeters
roundup
expresses
Barbour
rounding
divisional
Delaney
LTE
Jefferies
Saban
+#-###-###-####
Sabathia
Brain
excelled
friendships
bully
Miguel
Malibu
advent
Discover
graft
Hariri
Crowe
flattened
frontline
Certain_statements
incapable
hog
insider_trading
Maintenance
Client
homegrown
astounding
mid_sized
Percent
Pensacola
elevate
Niger_Delta
silver_medal
intricate
Cypress
novelty
silent_auction
suppression
breasts
opinion_polls
classy
histories
Quarter
Eli
Pub
burdens
spiral
Jorge
peanut_butter
analysts_surveyed
stickers
phony
5A
CF
diners
Sapa
Advisor
unmarked
Drama
Colorado_Rockies
HDTV
Zachary
Kendrick
Fee
Cadbury
Religious
reforming
stepfather
pricey
cyclone
mpg
Mandela
wallets
Winter_Olympics
Marquez
Hartman
Planned_Parenthood
profanity_obscenity_spam
nabbed
fabricated
•_Stay
sailor
JFK
VW
Aquino
converts
froze
Exit
Cubans
strategists
audited
GMAC
multiplayer
Shipping
Nifty
premiership
Rosa
Mozambique
bustling
unfounded
narrowing
brushed
readily_available
mutual_respect
regretted
towed
referenced
drug_paraphernalia
dished
King_Abdullah
notwithstanding
Heathrow
Taliban_militants
CPU
juror
Nationally
equitable
Bowling
floodwaters
athletic_director
disparate
Producer
loophole
guaranteeing
wagon
inbox
Crossing
SR
Lacey
adapting
agendas
stripes
grilled
Navarro
Payment
digest
Gorman
DaimlerChrysler
Staples_Center
potato
utmost
Fantasy
Fujitsu
Deer
International_Space_Station
handcuffs
Bayer
payouts
tentatively
Faulkner
Cure
Criminal
obsolete
rate_hikes
scanned
differential
candid
Dow_Jones_Newswires
apologies
monks
Special_Olympics
poignant
spit
Algerian
Titanic
Salmon
Explorer
Mike_Huckabee
Edmonds
Corn
doctorate
Seventy
Assuming
Ad
covert
Negotiations
reproduction
blends
leaned
Blue_Jackets
monsoon
presidential_nomination
Langley
paparazzi
Summary
solicitor
linger
Aerospace
Hackett
Abrams
approximate
Spot
intrigued
martial_arts
afloat
corresponding_period
mixes
Cheltenham
Religion
evacuations
username
Environmental_Protection
Guild
nitrogen
Miners
miles_northeast
fairs
RBA
paradise
hardships
Consultants
Downing_Street
defy
spilling
Maple_Leafs
Endeavour
Bryce
Politicians
Burrell
gunshot_wound
Bloomfield
Pacific_Ocean
Creating
Ft
Elder
Grady
Bergen
budding
Hodge
residing
Score
Distributed
starved
ATV
premiered
grappling
Merritt
echoes
Hays
Welfare
cross_examination
hostilities
Beard
Caleb
slippery
McKinley
fabrication
enclosed
medics
Not_surprisingly
Defensive
Sadr_City
groundout
St._Clair
sermon
West_Brom
nanotechnology
deceptive
Red_Raiders
icing
Download
Shia
Exxon
Six_Nations
CSC
Geelong
stewards
blue_collar
•_Published
prioritize
rife
Saginaw
Holmgren
caffeine
masterpiece
worshipers
Moyer
Avoid
Crow
moderation
sniper
reassured
plentiful
ticking
calendars
SMU
deposition
CAD
Ramallah
Waco
Carbon
marches
dolls
brochure
¢
decorating
McIntosh
ok
Debate
distraught
Managing
Red_Devils
outrebounded
Holliday
stocking
science_fiction
chic
Gayle
Oval
Red_Hat
Henson
Choose
Caucasus
confuse
Triple_Crown
Reddy
wolf
allocations
golf_courses
infield_single
Wearing
Islamic_Republic
Interfax
Culver
Goodwill
monies
havoc
Released
hormone
Macon
Decision
linear
Activity
Ticketmaster
Gina
Hammer
wed
Hair
grips
mural
jitters
sharper
ranchers
outpatient
previews
orphans
Secretariat
encompassing
Royal_Dutch_Shell
Maynard
####.#
Fannie
Vail
referrals
lamb
Sellers
lineman
Ski
cognitive
Wildlife_Service
nonstop
Uncle
woo
punter
wind_farm
tangled
Nguyen
superstars
homicides
MB
autonomous
floats
Staff_Sgt
O.
PMI
dampen
Quran
ribbon
Sosa
Nextel_Cup
Launched
Scranton
Ugandan
Guyana
meditation
Ark.
charred
aliens
windshield
boasting
estates
skaters
ONE
supervise
portraying
Haitians
Gareth
Scout
clinicians
NTSB
Patty
asserts
Cops
revitalize
pots
Nobel_Prize
San_Diego_Padres
McCormack
bubbles
Swat
Dairy
Devin
attic
knots
Milk
intra
Advisory_Board
enormously
notoriously
falsely
slamming
Lance_Armstrong
Boston_Globe
velocity
ponds
Girardi
BMI
Clients
UCF
intern
Kearney
reinstate
pastors
timers
Language
Woody
incarcerated
PRNewswire_USNewswire
territorial
Hurd
Mathews
Warne
ire
nostalgia
Brees
politically_motivated
cane
Cove
accountants
spies
insanity
Sun_Microsystems
cherished
coffee_shop
hypocrisy
breeds
Galway
Islamic_militants
benign
WVU
life_expectancy
squarely
Contrary
##rd_minute
clipped
Ivy_League
Beyonce
SmarTrend_R
inventor
Dominican
shoved
ex_girlfriend
Portage
coincides
Forecasters
Used
pier
Buyers
expiring
Worse
Devil_Rays
gods
peril
Holy
cricketers
Venture
Downey
Colbert
risk_appetite
Diocese
equip
gases
fanfare
Hobart
Creighton
silk
tri
survives
Heading
Cleveland_Cavaliers
Barlow
Blackberry
Rescuers
goodness
Worth
manifesto
Safeway
banging
Mullins
megawatt
Fourteen
resale
countdown
MLA
Matrix
infectious
interruption
ignite
wool
Sutter
destabilize
swelled
Highlanders
trackback
robotic
transcripts
humiliating
adrift
glowing
eternal
lad
whichever
national_anthem
Pleasant
Jew
Extreme
International_Speedway
Dwyer
electing
BI
plastic_bags
Bernie
preparedness
Guthrie
Greenfield
Burger_King
Ovechkin
Ways
Time_Warner_Cable
Twice
please_log
ventilation
Garfield
double_bogey
detecting
scent
Ahmedabad
diagnose
bushel
Mackenzie
Homeowners
Die
Compton
underwriters
dotted
probable_cause
AFL_CIO
Thorpe
invasive
St._Francis
birthplace
Seeking
Atlanta_Falcons
Birds
payback
harming
unleash
Wyeth
Saratoga
reluctantly
underestimate
Neville
£_##million
carve
telecommunication
Provide
monarchy
West_Palm_Beach
boos
sibling
Benghazi
spraying
Grayson
banana
Stuttgart
Journalism
Sidney
Gift
Ratings
lofty
Ernst_&
Hardin
Cebu
weathered
junior_varsity
clerics
attrition
AI
Bono
flop
climax
forecasted
burger
depended
Monitoring
St._Louis_Cardinals
balloting
PSA
Finch
Mix
Trade_Organization
synagogue
slot_machines
RMB
portrays
huddled
sporadic
Audit
Vargas
absorbing
huddle
unthinkable
distorted
gruesome
£_#.#bn
imposition
full_fledged
cakes
commenting_policies
Leah
Seattle_Mariners
Pittman
discovers
expedite
eradicate
Toyota_Motor_Corp.
Trees
Life_Insurance
highly_regarded
Sony_Ericsson
appalled
Wash.
Donaldson
stove
Positive
Ryanair
Hahn
streamlining
recruiter
breaching
Polanski
Period
3pm
Arrested
FARC
stem_cell_research
infielder
precarious
Milwaukee_Brewers
Richie
attained
Chirac
Fears
clicked
Icahn
crammed
definitions
spontaneous
stewardship
Breaking
Detroit_Pistons
Rolls_Royce
euro###
parishioners
Abramoff
Kessler
Jeanne
Baron
sperm
bunt
saturated
Abu_Ghraib
Cyclones
Sting
stockpile
condominiums
Wheat
Privacy_Policy
paragraphs
Rocket
CCTV
warriors
Wynn
Scheme
Conley
Tom_Cruise
attendant
Prime_Minister_Nouri_al
bites
reprinted
tones
tabs
First_Quarter
Transfer
stumps
vinyl
Cowan
attire
SMEs
file_sharing
peacekeeping
HUD
Mali
faiths
Curran
bells
wrath
OEMs
hunted
Rand
chopped
Northern_Rock
fruition
Dallas_Mavericks
red_tape
Pipeline
Fork
Orlando_Fla.
Dental
Soldier
microwave
con
optimum
McDaniel
Bid
assuring
Financing
retro
Modesto
portals
nurture
ironically
Artest
DeKalb
Teens
Whistler
Supreme
Returning
pops
Older
Arms
Baltic
geothermal
CDMA
concedes
Kirkland
unsolicited
exchanging
draining
withdrawals
Peabody
braking
Berman
blizzard
hyped
Rangel
cafes
Problems
Suburban
Rudolph
Belleville
Grants
snatch
voted_unanimously
assertions
REIT
Procter_&
extradited
violin
Brits
vampire
Siegel
cinematic
docked
delinquent
internship
KPMG
Perdue
Heck
spectator
CHARLOTTE_NC
AMA
dependency
unaudited
entourage
schizophrenia
squash
disrespect
indulge
DB
intervals
typing
inferior
orphanage
scrapping
Resistance
text_messaging
overlap
victimized
Barclays_Capital
Detroit_Red_Wings
relinquish
Tony_Stewart
adolescent
Dems
humane
tallest
Clearwater
Hole
Daddy
Consortium
bordering
defensemen
ACORN
Far_East
Toll
genetics
understandably
Jolie
hurled
Ambrose
heralded
wiring
PRWEB
Seriously
interacting
testosterone
firepower
###km
Dobson
Islamic_Jihad
hallmark
Blount
insurance_premiums
Sand
blatant
extinguished
Profile
lowers
President_Pervez_Musharraf
carmaker
Motorists
Showtime
Confederation
smoking_ban
Softball
Seneca
Shoppers
Secretary_General_Kofi
loopholes
Tracey
plethora
enthusiast
Brodeur
shopper
Hooper
Leahy
biblical
invading
Facilities
vocalist
Derek_Jeter
murky
camaraderie
Orchard
pensioners
Germany_DAX_index
wind_turbines
ATMs
ETA
tug
cues
Fairbanks
chatter
impunity
unharmed
choke
McCabe
Latham
incompetent
PeopleSoft
vocational
compromises
playful
Fusion
reckons
familiarity
Peruvian
Cambodian
Relatives
estimating
-##.#
crafting
betrayal
saddled
McChrystal
Promotion
Recap
matured
GPA
UNHCR
Leighton
Viet_Nam
Ernie
outpouring
harassing
refurbished
outpost
Yu
collaborators
Voices
Gaston
impartial
Whitaker
Marriage
gears
#-#:##_pm
wandered
insults
natives
accrued
Per
Kevin_Garnett
Faced
Rahman
skeptics
Eminem
snag
Raul
climbers
fountain
smells
rotate
ashore
mastermind
Terrorism
eclectic
USS
X_ray
Advisory_Committee
Weis
cocoa
0_Comments
GIS
Shreveport
Memory
secretaries
ignores
Blackstone
Girls_Club
desserts
Rating
Calipari
COLUMBUS_Ohio
Trends
Gupta
cashed
assailants
firmer
goodies
kiosks
quarterly_dividend
Editors
scant
tin
midway
Fest
dreaded
funerals
yardage
Derry
Depression
parades
telescope
Federal_Trade
onshore
scars
Innovative
Senate_Majority_Leader
Blaine
swipe
surrounds
Truman
Guangzhou
playmaker
oversized
regimen
ATS
defying
Senate_Judiciary_Committee
Pacific_Northwest
Merchant
Honors
Provision
shuttered
diminishing
Patch
Symphony_Orchestra
Alternatively
Angie
Raw
Gmail
frank
paused
cadets
Sage
don
PETA
tragedies
tweeted
yellow_card
affirming
JetBlue
sorrow
usher
diesel_fuel
inherently
Carver
vegetarian
Horne
exert
Amortization
Taft
Choi
Mostly
Bacon
regulates
pens
Location
immensely
dialysis
Mooney
crack_cocaine
fiasco
la
maneuvers
Holy_Cross
resigns
Gala
hesitation
Selected
pointless
live_webcast
assay
etiquette
Wildcat
Irene
Lily
arenas
Annual_Meeting
Bulldog
nominating
KOs
rebuffed
peripheral
carriage
utter
Noting
Judiciary_Committee
Hits
behaved
rioting
ratify
cooperated
Materials
CBA
Directed
###st
Devil
performing_arts
dispersed
AMC
Traditionally
negligent
influencing
Cramer
erode
Youngstown
scripted
needles
viewpoint
Entry
smacked
Hitachi
Mac_OS_X
casket
polluted
Eyes
Bethany
Schwab
casts
openers
Hon
engages
Heartland
brilliance
railways
Wizard
resorted
penchant
Fort_Collins
diabetic
Romeo
Bison
Defence_Minister
reprieve
cathedral
entrusted
Westport
Membership
Huang
defective
romp
Possible
Vasquez
wow
Hussain
bulletin
unanimously_approved
Eat
inches_tall
boiling
BREAKING_NEWS_UPDATE
yell
Safari
Packer
dissatisfaction
Kibaki
5K
disagrees
Ernest
Pressure
skyrocketing
dissident
assembling
lax
discouraging
Norwalk
Yamaha
poise
paychecks
envisions
Sixteen
#-#/#
toddlers
Solid
Mora
dependable
bloom
decorative
guitars
intangible_assets
lagging
power_outages
Shi'ite
Herrera
Clint
Doris
Associated_Press_Writers
coasts
Nicholls
pedigree
Exhibit
intensely
O2
diagnostics
superhero
Personnel
reminders
profoundly
itinerary
Deals
kin
disciplinary_action
Abe
Regulators
unstoppable
limitation
reuse
Suspect
weighted_average
eluded
pretax
Preakness
namesake
asylum_seekers
halves
bodyguards
bulbs
ISS
ConocoPhillips
Compare
Keenan
preacher
hack
web_pages
socialism
Boat
precincts
racket
Keystone
descendants
budget_deficits
videotaped
mourn
swallowed
soliciting
administering
skeleton
ideally
fielder_choice
dot
Alumni
slams
armies
sues
landslides
Marino
Increasing
Recycling
Andy_Murray
radioactive
Christy
worthless
sins
Winters
Rao
Cairns
pharmacists
configured
agitation
Pats
premieres
Beltran
Spector
Chicken
receptive
whiskey
lowly
bullied
Quartet
Fifa
exodus
sturdy
residual
cardboard
outlawed
sticker
Griffiths
taxis
Pricing
responsibly
trapping
shave
Peck
Crazy
theme_park
instant_messaging
##mm
Leads
News_Desk
blood_vessels
outplayed
comparison_purposes
candle
boxers
Kenyans
Tuscaloosa
2pm
experimenting
journeys
purchasers
equalized
Butte
Sheikh
Blanco
sci_fi
conspired
Delegates
Eighty
defensive_lineman
Guzman
MONTREAL
Cristiano_Ronaldo
Spurrier
IQ
miles_southwest
Troopers
Provides
knack
investigates
Shopping
invoked
Forsyth
Jimmie_Johnson
suitcase
Angle
Gillette
certify
nears
hugs
homebuyers
sourced
Andy_Roddick
Angelo
background_checks
soybean
grouping
sickness
riches
monkeys
Wesleyan
persisted
voter_registration
classical_music
Pittsburgh_Pirates
Gee
remorse
Cochran
Accra
expo
Boy_Scouts
signage
unheard
Lines
sexually
Monument
bleachers
interpretations
booze
disgust
East_Side
MAN
downright
HTML
kissed
Denver_Broncos
Bingo
vitamins
Piper
treacherous
Brewster
Epstein
flanked
Conn.
surfers
stardom
Knowles
irrespective
theoretical
Verizon_Communications
myths
hose
Nittany_Lions
Certification
Oasis
Female
acquires
dismay
dips
Dixie
goats
RTT_Staff_Writer
importers
Miss.
tan
Parcells
tacked
foiled
stab
Lackey
4pm
Music_Awards
Passion
outweigh
outperformed
Zero
bandwagon
flashy
dashboard
belted
ASX
bravery
tractor_trailer
Toby
intrusion
hiked
Resident
Orlando_Magic
Pittsburgh_Penguins
tenders
Rings
rehearsals
President_Dmitry_Medvedev
tutoring
Professionals
immoral
Alyssa
sect
McGowan
stoked
capitals
greener
copyright_infringement
SU
McCall
NRC
introductory
forearm
CVS
cellphones
DEP
persuading
ultrasound
Analysts_surveyed
flocked
Magna
NOAA
Bordeaux
Infosys
undercut
prosper
Away
armored
Wheels
Shaq
Bellamy
hot_spots
raining
Speculation
entrances
blades
respecting
livelihoods
starving
Blunt
punts
Rocky_Mountain
Fat
disconnected
Nobel
initiating
begged
stamped
MTA
yearlong
Grimes
Heads
redistricting
co_ordinator
NOTE
allotment
facilitates
heartland
Tunisian
stolen_bases
staked
Arizona_Diamondbacks
Schumer
Changing
Crown_Court
oval
Alito
Crocker
shuts
wealthiest
Staten_Island
CAC
creepy
vodka
Gains
Songs
Lack
swamped
proportions
Urban_Development
Ivy
Robson
vomiting
Dougherty
libel
Crimson_Tide
Maguire
communism
eclipsed
apt
styling
Soriano
SPL
Sadr
onwards
Apache
preferring
Midlands
Sustainable
trespassing
defending_champions
prosecutions
Information_Administration
differs
Englishman
Interpol
moderator
shutout_innings
debit_card
cylinders
##.##.##
cruises
indefinite
Continue
slider
dwell
Mutual
complements
DirecTV
Guess
An_autopsy
Koreas
CTO
Employee
barometer
shovel
implication
companions
metaphor
Joins
Judging
Elias
Frye
clicks
slaughtered
crossings
commonplace
gusts
dusk
baby_boomers
Discuss
US###
Border_Patrol
toxins
Lucknow
Bernama
£_##.#m
embryos
exhaustive
firefighting
Wiggins
refine
Twin
embraces
swirling
UNESCO
marginalized
Public_Affairs
unsecured
Hospitality
regroup
ed
poisoned
Receives
WB
Assistant_Secretary
jack
Air_Force_Base
kilogram
BLM
leash
Eva
template
unforgettable
hectare
abrupt
healed
Katy
programmers
Timothy_Geithner
wiping
Presented
Nato
Godfrey
protester
BNP_Paribas
ASA
headway
Developing
Juneau
tarnished
cramped
Furniture
Deadline
Dwayne
O'Keefe
shines
emphatic
Antigua
Kathmandu
onions
CR
olive_oil
tycoon
gulf
unaffected
IMS
mattress
Exercise
stipulated
bilingual
Glory
debilitating
publicly_update
Jose_Mourinho
abolish
Ace
fascination
winery
lousy
Existing
TMZ
Scouts
ISP
offside
solidly
screwed
annualized_return
Satyam
Monthly
childcare
tomb
Rider
nephews
asserting
calcium
Swede
believer
Waste
Essentially
Portland_Ore.
##.#m
academia
comforting
beams
Winston_Salem
disconnect
snowstorm
passions
WWII
grand_prize
Palm_Springs
cowboy
Singleton
Selectmen
captors
coherent
loaned
novelist
Vazquez
nurturing
cheerleaders
CINCINNATI
incompetence
MTN
soured
maid
USA_TODAY
Showcase
presenters
Monsanto
macro
Vic
Corning
Emergency_Management
murderer
Aids
uniformed
Homestead
tripped
giveaway
triples
CONTACT
grit
eviction
echoing
confidently
Dome
decor
roadblocks
Estates
sinister
bins
Valdez
Mount_Vernon
bt
Doc
Custom
Branson
saddle
SINGAPORE
scrutinized
Theodore
Asians
Reserves
mailbox
Landing
debit
Found
Barney
domains
carbon_footprint
Asset
hedged_play
complacent
allegiance
Tbilisi
Kara
0_0
professions
Schaefer
demolish
instinct
capitalist
firewall
deepened
rust
accomplice
violently
monsters
fooled
Coverage
enriched
watering
UF
Broadcom
shorten
Pollard
RAM
peaking
star_studded
Teaching
RBC
missionary
assemblies
NIT
Phoenix_Suns
rabbit
embarking
ventured
Manny_Ramirez
segregation
UCI
proficient
humility
Upton
chaplain
Harden
invariably
Pinnacle
underdogs
North_Koreans
Evelyn
ploy
Waiting
wonderfully
Manmohan_Singh
Mathis
incarceration
Alvin
valves
avenge
Rest
hooks
leverages
tuning
Nelson_Mandela
Spence
Aden
PSC
Cancun
archdiocese
MILWAUKEE
soak
salads
discus
Kiwis
carded
compel
Related
Injured
messed
paste
daddy
specialties
spinach
glue
statues
gripped
prematurely
RALEIGH_NC
Exxon_Mobil
Bulletin
fleets
Worthington
nut
Magpies
Blind
hello
Legislators
HONG_KONG
horse_racing
gourmet
characterize
Attendees
shrunk
AL_East
Labs
Aussies
Bowie
critique
markedly
educational_institutions
cardiovascular_disease
Fitch_Ratings
strewn
Estimates
Unions
libelous
lapses
magistrates
bashing
ISPs
walkers
wineries
expansions
Lynne
sophistication
Lufthansa
vent
tuberculosis
Cowen
desktops
sausage
treaties
Winter_Games
hypertension
amazingly
arteries
restrain
flipping
Woodson
softened
punishable
warships
Hindus
Presidency
Duane
philanthropic
tuna
eccentric
bittersweet
ablaze
austerity
Secure
Sonia_Gandhi
O'Neil
delegations
unsettled
Terrell
Screen
Kan.
Expansion
Cause
Browning
CPI_M
preach
gems
anthem
Antarctica
JPMorgan_Chase
glaring
hindered
Warning
revoke
Presbyterian_Church
Tibetans
unilaterally
setter
Jharkhand
Wrigley_Field
Heisman
Beattie
Sundance
dove
Ninety
Heart_Association
sensing
California_Highway_Patrol
Feds
PM_ET
frontman
sinks
beg
##st_Century
unreliable
Introduces
smart_phones
liberalization
subpoenas
Oakland_Raiders
Mountains
pedal
reinforcing
Count
Ala.
Buffalo_Bills
arrears
camped
Helsinki
Chung
Middle_Tennessee
directives
Miracle
jolt
Reality
hustle
Dhoni
amends
augment
axis
Pure
Colby
bushes
proclamation
unearthed
Siena
reunite
Costco
springs
predicament
Balance
reliably
Orion
AME_Info_FZ_LLC
Nina
Conroy
Abkhazia
parking_garage
leapt
horrified
relish
GS
drafts
admittedly
Raja
Flat
Weinstein
Wrestling
NV
David_Letterman
Magistrate
handover
parking_spaces
tyranny
Angus
balked
Gomes
cocktails
complexities
draped
Bike
entertainers
ticketing
slalom
JC
dearly
payoff
tiles
ham
Prince_Charles
ponder
wide_array
Rae
Montenegro
disguised
Raising
angels
Maher
reckon
gunshots
Liberal_Party
NDC
Sirius
UAB
appointees
futile
Griffey
recourse
takeover_bid
Leaf
veins
Bangor
softening
Speakers
symptom
boaters
handlers
compile
PV
agony
Gale
achieves
pharmacist
Jericho
UMass
adorned
fluids
Fine_Arts
kitchens
antibodies
Durbin
ambushed
edgy
WITH
Legislation
dynasty
Whitehead
Marketplace
looted
Needless
Lowry
clerical
visually
Hutton
baton
goat
empathy
Rabbi
collapses
downloadable
Rockland
McNamee
Allstate
Churches
noticing
Clubs
+#.#_%
Damage
stanza
Ortega
feds
plantation
Receive
devise
Carmelo_Anthony
conquer
Fashion_Week
limb
Marian
Sun_Devils
Acer
Hadley
macroeconomic
leveling
He'sa
anew
documenting
fireplace
mainstay
escapes
McGregor
requisite
Hendrick
recoveries
degrees_Celsius
Pharmaceuticals
Han
Patti
uptick
Prayer
injecting
mare
Kit
Bach
bursts
RSVP
submarines
abolished
Downing
inroads
patronage
restructured
ACE
Ghanaian
SO
adventurous
PTA
manners
Remove
Mousavi
sectarian_violence
midterm_elections
townships
Hub
congregations
gracious
deposed
sheriff_deputies
Jade
gel
suspense
David_Petraeus
Keegan
Peoples
lull
choreography
dissolve
brackets
organisms
leaps
factored
intellectuals
supremacy
disarray
Manatee
Devices
onion
veered
Activists
Brigade
Audrey
E3
ISI
contemplate
civilian_casualties
URLs
.###_batting
San_Antonio_Spurs
Rubio
Judicial
leaping
revitalization
Kyoto_Protocol
fiance
contradictory
corpse
buoyant
presses
Anwar
Chevy
Kanye_West
News_Alerts
Publisher
blending
Michelin
Jacques
Mecca
Washburn
adulthood
cherry
punitive_damages
usable
unjust
benched
airliner
dolphins
placements
suitability
Pepper
Nasdaq_Stock
anonymously
Doncaster
lifecycle
Henry_Paulson
Hickey
duet
evidently
listener
Constitutional
specter
Bombardier
hoop
accuser
labor_unions
creeping
stacks
calorie
Mackay
Cousins
crowns
controversies
pillow
congressmen
Redknapp
thesis
feathers
peculiar
confinement
prognosis
hips
Zito
torched
George_Mason
Ewing
Wife
heir
Watertown
GlaxoSmithKline
New_Zealanders
inequality
dared
informs
pulp
unlicensed
NIH
loyalists
Beta
pumpkin
grooming
NM
alcoholic
Alamo
ushered
fiancee
§
birth_certificate
profiled
Freeport
Caracas
Leisure
Francona
IN_THE
wheeled
chatted
Toys
winnings
provocation
GAA
Newell
diligently
Package
civilized
HD_DVD
Quote
McAllister
stuffing
Warehouse
Cooperative
fragmented
Boilermakers
unnoticed
Carla
Beaufort
Rankin
Tavern
librarian
Panhandle
Cowell
ETF_trade
Obasanjo
handicapped
sprinter
cautiously
Cass
geopolitical
zoom
sheriff_deputy
inheritance
WBC
environmentally
Gilchrist
Kyodo_News
biodiversity
hollow
Laos
slices
mulling
Easley
Eileen
WFP
Amarillo
Liberal_Democrat
Goals
landfills
Allawi
Patient
Flag
purchaser
Funny
supervising
Wharton
molesting
crusade
Taliban_fighters
State_Patrol
Accenture
Hurst
siding
Huron
Hopes
trousers
LPGA_Tour
Cleveland_Browns
Black_Sea
tad
Layton
ETF_traders_successfully
TPS_trading_strategy
TPS_strategy
sprung
anchors
Huge
gripping
Dorsey
inaction
Sonic
Oakland_Athletics
Hurt
Heisman_Trophy
Hudson_River
duly
APP
Messenger
Strip
blazing
sofa
Cent
Injuries
Egan
DRM
flared
Alcatel_Lucent
Defensively
Boxer
Lone_Star
Seminole
Spectrum
enlarged
Matsui
Nestle
Labrador
hacker
Sikh
Manipur
Napolitano
occupies
acquaintance
Venus_Williams
Devine
Roland_Garros
Jacqueline
Cuts
flied
AN
sic
limped
burgers
fiercely
evade
corpses
job_seekers
cultivation
catalogs
affinity
divides
Hatton
Oldham
deregulation
9pm
suicidal
McGrady
abstinence
sixes
timely_manner
regaining
Southland
swapped
Hussey
vocabulary
crossroads
Weiner
NASHVILLE_Tenn.
Approval
garment
Roberto
Sporting
redeemed
onlookers
disco
JavaScript
Riding
noses
inched
racketeering
notifying
#.#M
retroactive
assures
shakes
quickness
Shelter
Mother_Nature
First_Baptist_Church
Address
rammed
wide_receivers
Comprehensive
Gym
sodium
precursor
gratifying
homosexuals
mimic
mass_transit
headlined
staffs
David_Ortiz
Iron_Man
St._Jude
crest
seaside
remuneration
captaincy
Farley
briefings
Kimball
dividend_yield
lenses
colonies
Steinberg
Flintoff
untrue
Gannett
ghosts
Dollars
Account
pencil
Everest
colder
preventable
forgetting
Roger_Clemens
unload
revolves_around
Wasps
Swimming
Entering
congested
funky
shuffle
Minority
###,###.##
metropolitan_areas
Burial
Jay_Leno
tractors
equaled
shopping_mall
Flower
inked
kings
formulated
dads
apologizing
puppies
rusty
unnecessarily
Metals
Budapest
accounting_principles
vitality
Forms
NA
Contractors
eyebrows
Excel
chipping
loosen
wander
East_Timor
Harley_Davidson
ascertain
comparatively
lush
white_collar
Gross_profit
overcrowding
condom
Seems
Billups
confess
chant
scares
fouling
Bridgewater
Jess
wicked
hindsight
Lancers
kindly
Dunbar
narrower
Parkinson_disease
Great_Falls
impromptu
dispatchers
purportedly
banked
hammering
chores
NEWS
soft_drinks
maximum_sentence
shortfalls
panelists
hugging
evenly
Boca_Raton
impatient
Buckeye
Congressional_District
spinner
marble
XM
optimizing
Casper
Porto
handguns
Expected
enzyme
hijacking
Lois
stump
tenor
United_Auto_Workers
nighttime
Duty
Witness
Darryl
Midwestern
Crouch
participates
idol
ft
Pilots
commits
Moussaoui
Free_Trade
Goss
Piedmont
Raytheon
Talbot
manipulating
N##
yourselves
Pompey
Jasmine
Kyle_Busch
vie
hardworking
intensifying
ballgame
cons
roam
initiation
Sammy
photographic
Exactly
Jury
Mint
Messi
emptied
Dept.
Quantum
Areas
Tobin
snowy
Tim_Duncan
Pew
Huskers
triumphant
altar
taxi_driver
Shepard
proxy_statement
foul_language
Sudbury
trumpet
Sexton
Calcutta
skewed
Salon
axed
Meetings
currents
Abraham_Lincoln
headphones
reinforcements
throwing_error
Strange
Interest_expense
Ray_Allen
Overnight
Yukos
Diversity
NU
Mixed
remain_anonymous
transgender
Roughly
metallic
Till
assorted
canine
Sierra_Club
sequentially
MU
Henin
Houses
McClain
Peel
Pietersen
Fort_Hood
Brookfield
preferably
receivables
Ramadi
exquisite
Comedy_Central
Wants
perished
Cutting
Sainsbury
tributes
Leaving
misunderstood
bourse
NPP
vigilance
carving
Parry
fore
Toni
SALT_LAKE_CITY
ECHL
Seventeen
Dow_Jones_industrials
faint
indispensable
Stoudemire
battleground
enlist
Mormon
verse
Rios
Hebron
Watt
Skilling
bake
sagging
self_employed
OKs
Carling_Cup
fortunately
racks
induce
awfully
brainer
Hester
Citadel
decorate
Montreal_Canadiens
mined
thinner
bolt
reel
9am
ozone
discrepancy
ferocious
Seton_Hall
unconditional
tolerant
Cascade
Hamm
Teixeira
Meadow
Werner
Feel
hikers
threads
feeder
Forrester
SBI
Mongolia
Combs
KO
observance
deceive
dorm
spices
undermines
Funk
Petty
quantitative
Insider
lamps
imbalances
raucous
Leinster
Conservative_Party
Rebel
ITC
alias
bodyguard
riddled
#x#
Dies
ticks
autos
blonde
constable
Caitlin
NET
customization
PDA
authoritarian
fragments
busting
demons
blog_entry
encompass
complainant
Documents
dissatisfied
commend
George_W
single_digits
coal_mine
franchisees
Tempe
Shield
infrastructures
sacking
Mangini
regulatory_approvals
atmospheric
Emmanuel
Hendricks
postwar
hydro
Tampa_Fla.
reliant
Cablevision
Eighteen
Cooley
Unilever
emerging_economies
focussed
commandos
bolted
descend
McKee
disgusted
Pritchard
IPC
disgraced
restroom
bundles
Disneyland
hospitalization
throttle
Usher
detractors
QC
rehabilitate
garments
clocks
crater
plateau
Limerick
allergy
Treasurys
unravel
M##
picturesque
offsetting
ceilings
institutes
WWF
reputable
neatly
variant
Smoke
reinstatement
boiled
caddy
Lazio
Concern
somber
folder
Eureka
sham
admirable
complicate
comedies
SAT
Willard
Frey
veil
implying
Patrol
Muller
Phyllis
##:##_AM_ET
Steinbrenner
muscular
Protestant
hijackers
Baltimore_Ravens
DRC
Headley
Real_estate
hovered
Farm_Bureau
fried
guest_speaker
exec
burner
Conversely
ensued
gram
sequential
violators
Runner
tack
overcrowded
Electronic_Arts
Returns
charisma
addictive
Maj._Gen.
offend
Shaffer
Rees
plow
Saying
Fortis
summons
Pain
intrigue
Wear
occupational
massively
cyclical
kidneys
slightest
civil_unions
PJ
exposes
facade
innovate
Inspired
haunting
east_Jerusalem
stretcher
VC
linemen
Lorenzo
hotter
footballers
autistic
perpetual
recurrence
Winslow
US##
Prime_Minister_Ariel_Sharon
Champions_Tour
Addison
waitress
Problem
Sky_Sports
McNeil
peanuts
rosters
scanners
Camera
pretext
indifferent
conveniently
donned
Boston_Bruins
Duval
crept
Non_GAAP
Evolution
nanny
NBA_Finals
Reconciliation
Capital_Partners
Developed
ROME
venerable
appoints
Rosenthal
Purcell
cured
CTV
humiliated
wherein
coordinates
Sultan
simulate
food_stamps
ME
walkout
lawns
Trouble
Kind
forceful
Cummins
refiners
squeezing
Pound
Certificate
towels
Throw
bedding
foot_birdie_putt
iceberg
fingerprint
Longtime
Federal_Deposit_Insurance
chairmen
Greeley
peek
teller
defamatory
Vonn
fruitful
Blue_Shield
cord
fairways
deadlocked
scuffle
dentists
mirrored
discriminate
organizes
Garry
Abu
rowing
+1
customizable
policyholders
Uptrend
Central_Command
tenths
Minerals
Inverness
Zambrano
longest_serving
timeless
swapping
brewery
Northwest_Airlines
Settlement
biofuel
faxed
resignations
Wipro
thrashing
Male
relentlessly
Straight
offshore_drilling
thankfully
willingly
shelved
dictates
newfound
Expands
puzzled
##/##/##_##:##
Thomson_First
heroics
wanna
maize
bushels
Rosie
Architects
breakdowns
Aziz
complacency
delta
habitats
depict
HB
Genentech
Jamal
forcefully
deadly_weapon
Philadelphia_Flyers
Falling
renters
Proposed
Britt
priceless
keynote_speaker
plausible
Smaller
Symposium
evicted
hinges
counter_terrorism
Oshkosh
Activision
Eisenhower
Barbie
semiconductors
unloaded
Hardware
butterflies
Arrow
Cam
sovereign_debt
Notebook
Juliet
Successful
eclipse
RPI
ludicrous
iii
Lombardi
Duff
turkeys
Serving
retrospective
prompts
appease
Enforcement
##kg
installments
CAA
Chesterfield
commonwealth
Excellent
Marquis
Mozart
outlaw
Sharing
cabinets
hardened
workplaces
Sleep
sketches
Kiev
Dominion
detain
reproduce
Burger
Gil
EDS
frequencies
Turkmenistan
hooker
discredit
omitted
virtues
Celebrate
Licensing
Eritrea
characterization
careless
marines
Athletes
Yugoslavia
underwent_surgery
philanthropy
Cancer_Research
Ferris
Map
handmade
2A
mammals
Paterno
stark_contrast
clutching
unfolds
JT
Bombay
motors
objectionable
chairmanship
divulge
enrolling
platoon
Contador
Cap
solidify
Feature
Months
disclaims
Linden
Assemblyman
SMB
Press_Release
rituals
bounty
plated
docks
BPO
capitalization
Utes
Wonder
Melton
Willow
Surgery
newsday.com
Butcher
Trainer
Sens.
Sub
creep
anthrax
NAIA
stared
burying
MCC
retail_outlets
enclosure
Hawai'i
Push
lockdown
impulse
Worst
goers
reclaimed
wireless_broadband
progressively
powering
Anheuser_Busch
User
anomaly
Wedding
criticizes
nationalities
Somewhere
capital_expenditure
Mr_Rudd
ExxonMobil
annuity
Courtesy
pregame
Autumn
DJs
opposite_direction
Disaster
staples
pathways
negatives
revert
curves
thickness
Gov._Rick
Smoking
Fairview
HHS
Sharpe
Drogba
Chu
NSA
Hummer
clogged
mysteries
New_Jersey_Nets
Dearborn
damp
hunger_strike
Texan
National_Geographic
concurrent
cholera
embezzlement
Mafia
Panther
eroding
surveying
Tata_Motors
EIA
startups
Lyle
that'sa
Franks
XP
commercialize
Includes
caters
visitation
primitive
passages
evangelical
Dungy
pro_forma
Hawthorne
Taxes
antiques
redundancy
County_Courthouse
Roh
Thatcher
McCullough
Bart
parallels
usd
Segment
repository
Presbyterian
Export
Jindal
vacate
Andover
round_robin
detached
extravaganza
BSP
hillside
Afterwards
intrusive
osteoporosis
Sandoval
takers
concussions
Donald_Trump
rant
infectious_diseases
outsource
filmmaking
Thurston
stumble
agile
Bismarck
Colchester
bluegrass
rod
marshals
cabins
FDI
differing
kickbacks
pesticide
ramping
triple_jump
Advani
Cheyenne
comprehend
interior_minister
Clements
starvation
Franken
displacement
Chris_Bosh
fractures
appropriations
Father_Day
Smithsonian
stamina
stalwart
RNC
scarf
compatriot
molecule
thirteen
Kaka
cultivate
Regulations
facets
Candy
TVA
geared_toward
soy
solely_responsible
Howard_Dean
#-##-#
Adventures
darling
diplomatic_relations
Mukherjee
recreate
CPS
witty
realignment
bolstering
TWO
playbook
punctuated
watered
Significant
Pollock
aquatic
swayed
Reporters
Lake_Tahoe
Harrell
Moose
Junction
Rent
KFC
Toulouse
Mead
Benoit
genome
Subaru
guild
2B
cruise_ship
Economist
Imaging
enraged
aircraft_carrier
disposable
cordoned_off
affirmative_action
nascent
conception
plugging
fluke
TLC
MI
enticing
Featured
cultivated
Sinn_Fein
maternal
rpg
satire
Woolworths
holistic
flight_attendants
fraught
Carrier
algorithms
twisting
sen
downtime
energies
bothering
dormant
substitutes
authoritative
Hong_Kong_Hang_Seng
Okinawa
exposures
biologist
Stream
purity
archbishop
Sioux_City
mastered
Sites
Mardi_Gras
closing_arguments
completions
Rumors
warden
VI
Dunedin
Messages
monuments
playoff_berth
formulate
golfing
collective_bargaining_agreement
bloated
Pitcher
threes
frail
pounced
Hyatt
Sadler
Blanchard
Sustainability
NYPD
sub_prime
Lu
jokingly
BALTIMORE
HQ
Dale_Earnhardt_Jr.
DEA
recounts
Boston_Scientific
necessities
polluting
Controller
heroine
Guilford
PST
Fabio_Capello
Chocolate
bee
Sabah
enclave
Links
café
Provider
truths
tweaked
Adler
Daytona_Beach
farce
vengeance
Tampa_Bay_Rays
machine_guns
reasoned
purses
Burn
wholesalers
aboriginal
Linn
towing
distrust
Rapid_City
Lorraine
Zimbabweans
villa
upholding
reiterate
YOU
Ithaca
sightings
Patriot_Act
Premiere
Colony
Westpac
localized
McManus
sneakers
AGM
Continues
deductible
covenants
#:##_PM_EDT
sweets
Ghost
Bourne
NL_East
imaginative
Springboks
Marietta
Crossroads
Viewers
drunk_driving
Kiss
#:##.###
spacewalk
special_envoy
Beef
musicals
Saskatoon
Burt
persistence
restraining_order
traumatized
comedians
Friendship
Matters
Persons
internationally_recognized
underperforming
%_downside_protection
organizing_committee
Opening_Day
aspire
Murtha
caregiver
Maya
SNP
inbound
horrors
academically
Karbala
Fenton
AstraZeneca
SAN_JOSE_Calif.
Nicklaus
Koizumi
pontiff
Ideally
Pasco
Investing
Id
Maddox
Text
Rafael
relays
feisty
elk
DR
sweater
shouts
halved
tray
Mackey
SCO
RA
Rapid
denounce
Couple
Specialty
AV
hapless
molested
PSU
Micro
Transformers
ya
Demons
Granite
quieter
Monarchs
LeBlanc
martial
mildly
rooftops
Bain
rescues
spotting
Roe
Aetna
#:#
analogy
bounces
Nasdaq_Composite_Index
serviced
Carnegie
Sports_Illustrated
salvation
sentimental
Graduate
spins
engagements
AHN
spicy
fragrance
derive
newsletters
D_Calif
tidy
accommodating
insect
aftermarket
dived
Gaines
canyon
Butt
resisting_arrest
Whitehall
uninterrupted
Tribal
Missoula
pleads_guilty
illustration
dissolution
complemented
weaponry
powerless
Investigations
mishap
N###
sprinted
Betsy
ref
sucks
PCI
skirts
Serve
renaissance
UH
Cougar
Nickelodeon
Tennessee_Titans
critically_acclaimed
Utley
Likud
raged
LinkedIn
troupe
Optimum_Online_®
continual
vaccinations
tigers
Surprisingly
Krishna
Grand_Forks
revolving
entails
selects
multicultural
memos
AME_Info_Web
kph
State_Colin_Powell
Merit
proponent
lame
Nova
Churchill_Downs
Albania
Huddersfield
punters
Fleury
Tonight_Show
lurking
resembled
imposes
tile
sponsorships
plutonium
emailed
Restaurants
subprime_mortgage
Hook
roller_coaster
realistically
RS
adherence
Mallory
abound
#-###
stalling
flagging
steering_wheel
Walt
Colon
overdose
rushes
broker_dealer
Class_AA
Expectations
Stringer
trenches
Chicago_Blackhawks
H#N#_virus
insignificant
squares
Arsene_Wenger
triumphs
breakthroughs
pared
Toronto_Maple_Leafs
Lastly
St._Augustine
bartender
Jr
fodder
Millar
marital
Carolinas
Lifetime
importer
furnished
dinosaurs
rundown
That'sa
misplaced
putter
Feed
SME
revelers
forgo
###nd
stare
gamblers
Regions
unforeseen
democracies
FFO
BBC_Radio
Closer
Reported
ticket_holders
Togo
GPs
Lutz
Pole
Eco
mobilization
passers
absorption
UC_Davis
Bella
Singles
Deb
LSE
Blatter
tweak
terror_suspects
angrily
Silverman
Veterans_Day
Adkins
Luongo
blocker
Slow
hopped
##:##_PM_ET
Places
Kenseth
recorder
ultimatum
detour
filtered
Administrators
budget_shortfall
Madagascar
Reverend
Medtronic
feminist
Fiona
mend
nagging
enthusiastically
drains
tarmac
intervening
Martinsville
curtains
remembrance
cheaply
rug
Carole
boxed
www.sedar.com
renovating
Please_refrain
quantify
whirlwind
Couples
Jody
Morningstar
irrational
write_downs
Chloe
decency
surpluses
menacing
GA
stunts
bylaw
baseless
ostensibly
Paul_McCartney
Nassau
Ty
Azerbaijani
Charged
human_trafficking
Livni
observes
Defending
Most_importantly
prolong
Thames
podcasts
San_Francisco_##ers
Profits
Beebe
Hatfield
propane
Mahindra
Brownsville
thrived
achievable
Shrek
auxiliary
evolutionary
Needs
envisaged
restarted
nifty
heartfelt
Comptroller
Tip
Boxing_Day
sooner_rather
overwhelming_majority
booklet
License
inspecting
Mama
materially
Cancer_Institute
unavoidable
La_Russa
resonate
nostalgic
rooftop
Papa
degradation
Winthrop
supervisory
pastoral
implanted
Green_Zone
declarations
perseverance
single_digit
nuclear_reactor
liar
plastic_bag
Richard_Nixon
treason
sixty
Terps
visibly
Limbaugh
prominently
Serbs
U.
pole_vault
MLAs
Railways
ballroom
squared
nieces
Peyton
foothold
Class_4A
chili
unsettling
complexes
digitally
erred
Law_Enforcement
Sanderson
fists
empowers
Kampala
obstructing
Caps
RC
suppressed
granite
lien
shunned
rhythms
beginnings
CN
Cingular
concerted
Door
Talladega
#.#.#
jobless_benefits
Driscoll
mocked
layups
plummeting
Ramon
Sonia
Niles
Bonner
ONGC
Greeks
glut
salmonella
uploaded
unforced_errors
greenhouse_gas
rarity
choppy
turtles
+_+
hobbled
implements
PNC
trait
awoke
vitamin
broadening
autograph
curled
distinctly
sincerity
eminent_domain
Parties
lobster
roundabout
insightful
legged
Batista
Jaime
Ambulance
superiors
Fritz
opportunistic
faltered
Amman
Barrie
Congolese
er
Strauss_Kahn
Veronica
grazing
bookstores
dots
karaoke
formations
Potts
glitch
prescribing
Consumer_Reports
Draper
Merchants
Maradona
###rd
prank
Symbian
execs
Lotus
hearted
CSR
Judd
Amish
gasp
Shock
neurological
sunrise
Ronaldinho
AM_Best
O'Hara
Fay
petrochemical
Depot
heyday
Vancouver_Canucks
poets
VANCOUVER
Palermo
cohesive
encrypted
Scene
solace
shareholding
Jamison
girlfriends
honorable_mention
humbling
Dillard
composers
loosely
App_Store
BU
Militants
Pueblo
Wilkes
Supply_Management
migrant_workers
World_Wide
furlongs
Atlantic_Ocean
Peacock
Spc
Motherwell
singular
Kan
runways
Heinz
outscoring
Tool
bitterness
weaving
Lock
Big_Sky
Burbank
AAP
Subway
Councilwoman
bilateral_relations
Washington_Mutual
Battery
variants
Oh_yeah
hardline
persists
artery
Nader
destroys
luring
Goddard
cheerleader
Gardiner
pitfalls
taxpayer_dollars
dredging
Petroleum_Exporting_Countries
mundane
Burnham
clown
Awareness
Walnut
churn
ADB
Yanks
hallways
acclaim
exempted
frost
superiority
Status
Larkin
netbook
Steve_Nash
Walls
rezoning
commuting
mic
Graeme
nationalism
Kensington
jogging
sirens
punitive
redshirt_freshman
Investment_Management
DT
Era
Balkans
Currency
chalk
Ensign
Redlands
Leyland
understatement
Boyer
complains
maneuvering
Vickers
slum
Desmond
seeming
Belle
ESPN.com
Texas_Instruments
extremes
paramedic
Winds
cheerful
South_Waziristan
Humboldt
spewing
anti_Semitism
Aircraft
anguish
Dunne
chop
Foreman
MotoGP
smelled
blazes
blunder
Salt
flamboyant
hypothetical
Piniella
upswing
Housing_Authority
Visitation
motorcade
devoid
Holiday_Inn
Prime_Minister_Benjamin_Netanyahu
mortars
undisclosed_amount
Folks
##:##.#
displeasure
contagious
hooking
depth_chart
Wills
Lamont
greenhouse
chopper
Northrop_Grumman
Citibank
drone
Mancini
##th_Anniversary
Portal
thunder
sweating
nightmares
adrenaline
Wholesale
cutoff
Clean_Air
golds
levies
Wilder
Denver_Nuggets
exiled
comfort_zone
Subscribers
German_Chancellor_Angela_Merkel
Eastwood
rabbits
splendid
ruptured
Attacks
Faces
abandonment
Hizbullah
provisioning
cast_ballots
critically_injured
jab
Nymex
originating
Simms
Ehrlich
dim
Economic_Forum
Irvin
interrogated
Heller
meddling
Macs
Volleyball
Budget_Committee
methodologies
surges
McDonough
Coroner
badges
Amos
Tejada
Kia
Herb
Appoints
cages
Stillwater
proficiency
Archdiocese
grammar
licensees
realism
Mayo_Clinic
dpa
insecure
Huffman
reformed
San_Diego_Chargers
sir
seniority
skier
Colgate
Lives
Shawnee
miracles
Bray
Haywood
Clive
MHz
illegal_aliens
paradigm
Copies
Candidate
skates
Oakley
Hoyas
inquire
Miley_Cyrus
Plainfield
Chaney
politely
regrettable
ad_hoc
¶
Nashville_Tenn.
Cowboy
midseason
Dark_Knight
clandestine
IF
Rolling_Stones
irregular
Correction
discrepancies
agitated
predator
inconclusive
cloudy
Workforce
grievance
Kyrgyz
restraints
campaigner
afternoons
Alderman
fort
hanged
Somerville
reeled
boycotted
stereotype
FTA
addicts
segregated
inflict
putted
aspirin
unattended
fossil
imaginary
intending
court_martial
Ernie_Els
video_clips
Transaction
salvaged
Merseyside
Alameda
Osaka
News_PowerRating
bogged_down
Thinking
generously
SEOUL_South
substituted
paralysis
Any_opinions
detriment
Saakashvili
parody
####-##-##
instrumentation
cling
commencing
resembling
streaks
Goal
MPC
Surf
relayed
voter_turnout
Asean
OSHA
unsuspecting
theology
Luxury
Wilton
angst
pitting
Fordham
refresh
pennies
Bynum
aquarium
seeding
sheltered
crores
tedious
Hollywood_Reporter
homepage
Washington_Capitals
undo
migrant
furnace
accents
Rs.##
flyers
omissions
Universe
baffled
freelance
Haines
custodian
noticeably
Seminar
polish
melee
wax
Preferred
kiosk
unfit
ARC
elated
conceptual
Protect
Beatty
Life_Sciences
cemented
TCS
trusting
stud
navigating
infused
exclusivity
Mothers
besieged
Nashua
Floor
Rosemary
bystanders
Cortez
stationary
carbon_dioxide_emissions
eatery
Eduardo
Jump
serial_killer
Gasol
Skip
lemon
Wrong
EBIT
brochures
Customs_Enforcement
Homeless
perch
pickups
include_expiry_date
entirety_via_email
Paisley
rabbi
Cellular
representations
DWI
societal
NFL_Draft
Forever
posh
BBB
Avaya
Ganguly
Currie
Champ_Car
curtailed
Tikrit
infancy
elites
TIPS
Bench
famine
Icelandic
Bob_Dylan
melody
Associated
opium
leakage
salsa
SanLuisObispo.com
Hasselbeck
diner
onsite
midday_trading
wacky
Laboratories
leaped
Gustav
AL_Central
Statehouse
carmakers
Networking
Dynamic
Means
capitalizing
silenced
Groves
Offshore
smoker
proactively
guardians
cinemas
bothers
Attendance
Marcos
usefulness
Lakeside
MANILA_Philippines
errant
mantle
Fees
reelection
Otto
wasteful
Dwight_Howard
boiler
Concordia
Row
repeats
defuse
keynote_address
malnutrition
whipping
coding
Yvonne
Patil
cumbersome
remediation
zip
claw
fishery
affirm
Times_Staff_Writer
Alma
galaxy
delinquency
rigging
necklace
Knapp
Plano
Burress
Bender
Meghan
Imus
Nowak
categorized
conferred
hinge
Dickerson
Created
gathers
extinct
repetitive
Liberian
McFarland
Magnolia
Amir
Rawalpindi
post_traumatic_stress
Orthodox
openly_gay
Dirk_Nowitzki
firings
Corona
rapes
aftershocks
dormitory
UTEP
Los_Angeles_Clippers
impede
Houston_Rockets
Wilkerson
problem_solving
slapping
microscope
fugitives
clutter
sexually_assaulting
Fergie
Muir
touts
Cinderella
spirituality
Raven
Maldives
keyboards
Schalke
Hendrix
nodded
alerting
Bone
name_mailing
Opinion
Frankie
GST
Teddy
fluent
refurbishment
braced
Butch
failings
IRL
Walt_Disney_Co.
Wooden
comedic
petitioner
flavored
staunch
Sponsors
Buick
Chidambaram
maze
hopping
sheds
wheeler
rescuing
translating
Hickman
Lockhart
rockers
goaltending
undertook
Dons
ED
Wonderland
noises
mogul
Ramsay
overpass
clamp
annex
Olive
Pixar
pasture
bamboo
devotees
ADHD
Illinois_senator
Plummer
voicing
Warrants
Smyth
nemesis
sellout_crowd
Kurdistan
Cooking
Baucus
Laird
universally
bending
ribbons
nausea
denomination
condemns
beefed
clauses
transitions
savior
traffic_congestion
slotted
biologists
heap
staggered
tallies
Updates
Soto
flap
Consultant
sizzling
trivia
Rusty
ascent
Hal
disapproval
Simon_Cowell
Mystery
monarch
revising
Alan_Greenspan
moniker
■
correspondents
burdened
immunization
airstrike
gunshot_wounds
ol
Via
Harrah
Posey
bickering
tussle
estranged
Brentwood
Sun_newspapers
stung
Rocks
Diesel
Quigley
psyche
Meals
Restructuring
MRSA
web_browser
defensive_backs
Drug_Administration_FDA
uplifting
amateurs
learners
Apprentice
zombie
Nearby
Ont
upbringing
nap
gum
guise
rabies
GmbH
Box_Office
law_abiding
International_Film_Festival
Darby
Salman
Anthem
Calvert
nuclear_reactors
senseless
highly_skilled
exhaustion
Compensation
Damien
Daimler
amending
Brandt
h
solitary
Tamils
simplest
psychologists
Nano
radicals
mistress
SEC_filings
Napier
plucked
exhausting
adversaries
Wolff
Xstrata
ha
Wolverine
crab
Zionist
Helps
Display
Schuster
Charts
Simpsons
erroneous
Melrose
waging
Aceh
psychologically
buyouts
Sopranos
Company_undertakes
eagerly
indifference
Sen._Hillary_Rodham
Raceway
adept
artificially
regionals
Drummond
sustained_winds
Longview
boardroom
shrug
carts
gushing
Southwest_Airlines
intolerance
Banner
circled
gardeners
Next_Generation
Tang
Firstly
cherish
slowest
envoys
ten_articles
essentials
arrow
advertiser
tendencies
Advancement
Dallas_Fort_Worth
Elton_John
Boots
Hybrid
bombarded
Horner
Cumbria
Actual
connector
Racine
Councilor
embarrass
Euros
Bees
soreness
Mellon
Macomb
Payments
centrist
fuzzy
Rounding
E##
Hibs
arcade
T##
cranes
fibers
stymied
Personalized_Mock_Up_Frontpages
Announced
IE
completeness
Chances
parliamentarians
bolts
racking
unrestricted_free
FFA
DIY
Daryl
cameo
Mahmoud_Abbas
hastily
Full_Page_Reprints
colon_cancer
Jam
armored_vehicles
Buildings
entail
Odyssey
Cedar_Rapids
chuckle
Inventories
Hyde_Park
Majors
close_proximity
Statistics_Canada
Common_Stock
Eddy
patrolled
Tiller
trivial
Killer
Agenda
vandalized
stifle
Mae
UNITED_NATIONS
scathing
OTCBB
DPP
acquittal
reckoned
Johns_Hopkins
CS
Puget_Sound
uttered
crawling
Gunn
constituent
GW
Arcadia
stumbling
quad
Swindon
trough
memberships
overflow
puzzles
Northland
lions
Analytics
Greenland
ElBaradei
disturbances
Doors
steady_stream
Episode
stampede
Peugeot
missionaries
intoxication
Grammys
Angry
perpetrated
canoe
theoretically
Giambi
unchecked
verdicts
Approved
alumnus
frivolous
Harbaugh
Lloyds
Landmark
Champagne
Outreach
fourteen
CCC
averted
dismayed
Blumenthal
cm
browsers
unbiased
egregious
sediment
Heard
spinoff
mushrooms
AR
Brief
Sen
KANSAS_CITY_Mo.
Stella
Raleigh_NC
Ultra
scarcity
Oswalt
appropriation
Collin
backcourt
brazen
Red_Sea
hyper
McClure
DPS
tepid
giveaways
chats
WHEN
disrespectful
Hammers
Davey
Kilgore
Challenges
physical_therapy
wept
unsigned
Sasha
aura
Pitts
diapers
ceramic
nuclear_ambitions
bonded
emirate
Tahoe
Walgreens
Helmand
Belize
Granger
Toys_R_Us
Own
diverting
Critical
consumes
visuals
Leavitt
Cayman_Islands
discontinue
Seattle_Seahawks
Wheaton
Donald_Rumsfeld
reseller
garages
Sonny
inherit
bananas
Babe_Ruth
chilled
Setting
bumpy
restated
APA
Il
Hollis
Trojan
subdivisions
folding
beset
juggling
Serious
Â
Yudhoyono
Bangladeshi
DMK
presidential_hopeful
Role
CIT
blackmail
Aces
blanked
Seal
torso
Admiral
vandals
SYDNEY
Presents
ADP
oak
storming
multiple_sclerosis
harrowing
hypothesis
peso
wares
Blades
leftover
sampled
recap
Donahue
blue_chips
hopeless
Ferdinand
Improved
Trey
HBOS
blindness
Tomlin
Esther
fertilizers
Chrysler_LLC
Gentry
Safety_Administration
gridlock
omission
unwelcome
Carlsbad
overrun
Hazel
unrivaled
peg
formulas
plotted
crutches
Rock_Band
caste
HC
swamp
Stefan
Orange_Bowl
Barrington
fossil_fuel
leaflets
Survivors
repealed
Firms
ecosystems
redirected
Californian
Begin
commemoration
Intelligent
Sunny
expletive
resorting
brainchild
Harman
replays
Combining
ACL
DNA_testing
Lowery
ornaments
competency
Cage
coordinators
bogeyed
Yukon
deterred
Turnpike
t_shirt
Angelina
public_servants
cameraman
penultimate
Pearl_Harbor
retribution
dice
Chappell
disparities
fashioned
Samuels
Bharatiya_Janata_Party
Choir
convenience_stores
supper
voices_engaged
Homecoming
stat
glossy
Pitino
Judaism
Fax
Public_Policy
Michael_Schumacher
Country_Music
Mauritius
Hitchcock
CPM
Bankruptcy_Court
FL
[...]
